[PAD]	0
[UNK]	0
[BOS]	0
[EOS]	0
[SEP]	0
[CLS]	0
[MASK]	0
▁.	-1.96782
▁IF</t>	-2.31227
▁(	-2.48723
▁)</t>	-2.53557
▁()</t>	-2.91925
▁String	-2.9605
▁int	-3.64006
▁ELSE</t>	-3.73005
▁,	-3.80771
▁new	-3.84363
▁CASE</t>	-4.08631
▁Object	-4.13321
▁TRY</t>	-4.3153
▁CATCH</t>	-4.43402
▁FOR</t>	-4.6059
▁append	-4.76412
▁FOREACH</t>	-4.97878
▁ITERABLE</t>	-4.97878
▁VARIABLE</t>	-4.97878
▁StringBuffer	-5.07643
▁StringBuilder	-5.08038
▁equals	-5.16255
▁File	-5.20287
▁List	-5.23847
▁Map	-5.3173
▁get	-5.34868
▁add	-5.46864
▁WHILE</t>	-5.50991
▁E	-5.59301
▁toString	-5.60657
▁ArrayList	-5.66424
▁println	-5.67407
▁PrintStream	-5.67917
▁Exception	-5.75725
▁length	-5.7839
▁FINALLY</t>	-5.80461
▁SWITCH</t>	-5.88007
▁put	-5.89265
▁size	-5.89375
▁K	-5.90709
▁V	-5.908
▁Component	-5.91357
▁double	-5.95029
▁OutputStream	-5.9783
▁Integer	-5.99988
▁Iterator	-6.00214
▁Class	-6.05817
▁char	-6.0656
▁long	-6.11842
▁System	-6.13582
▁boolean	-6.18502
▁InputStream	-6.24741
▁[])</t>	-6.24953
▁Thread	-6.29361
▁HashMap	-6.29999
▁substring	-6.34962
▁byte	-6.35953
▁Math	-6.40225
▁next	-6.40306
▁Vector	-6.51455
▁getName	-6.55736
▁valueOf	-6.60425
▁GroupLayout	-6.61371
▁CharSequence	-6.61519
▁Set	-6.61907
▁getClass	-6.71571
▁>)</t>	-6.71871
▁IllegalArgument	-6.73713
▁Container	-6.73842
▁hasNext	-6.7503
▁JComponent	-6.75156
▁[],	-6.75401
▁write	-6.77
▁indexOf	-6.78367
▁PrintWriter	-6.79615
▁Graphics	-6.80175
▁Collection	-6.80474
▁close	-6.82384
▁Date	-6.91705
▁contains	-6.92056
▁AbstractButton	-6.95939
▁ResultSet	-6.962
▁float	-6.96629
▁Calendar	-6.97276
▁T	-6.98566
▁charAt	-7.0103
▁ByteArray	-7.05205
▁D	-7.06212
▁2	-7.06291
▁trim	-7.08108
▁Hashtable	-7.11431
▁,)</t>	-7.13034
▁startsWith	-7.13508
▁Double	-7.13724
▁iterator	-7.13728
▁Writer	-7.15797
▁current	-7.18441
▁equalsIgnoreCase	-7.18506
▁TimeMillis	-7.19213
▁Color	-7.19451
▁Arrays	-7.20124
▁Entry	-7.21372
▁QName	-7.21933
▁XMLStreamReader	-7.2312
▁remove	-7.23146
▁Runtime	-7.24406
▁URL	-7.27077
▁Random	-7.27625
▁ByteBuffer	-7.279
▁Long	-7.28438
▁sleep	-7.28452
▁Boolean	-7.28932
▁parseInt	-7.2942
▁SequentialGroup	-7.32541
▁format	-7.33767
▁extends</t>	-7.33869
▁getProperty	-7.34553
▁Buffer	-7.34609
▁Properties	-7.34703
▁Operation	-7.37311
▁Unsupported	-7.37763
▁BigInteger	-7.38189
▁<?</t>	-7.38299
▁hashCode	-7.38546
▁isEmpty	-7.38953
▁print	-7.39075
▁Matcher	-7.39733
▁XMLStreamWriter	-7.42918
▁exists	-7.45946
▁Abstract	-7.47123
▁ParallelGroup	-7.4742
▁BufferedReader	-7.47667
▁Reader	-7.4868
▁Pr	-7.50122
▁JLabel	-7.50265
▁eparedStatement	-7.50746
▁Collections	-7.51256
▁Logger	-7.52207
▁Character	-7.52228
▁HashSet	-7.52442
▁read	-7.54263
▁intValue	-7.54272
▁create	-7.54656
▁set	-7.56586
▁getBytes	-7.58291
▁ActionListener	-7.59869
▁StringTokenizer	-7.60418
▁Method	-7.60636
▁StateException	-7.60921
▁Illegal	-7.61163
▁arraycopy	-7.61224
▁Statement	-7.62234
▁JTextComponent	-7.63296
▁Enumeration	-7.63948
▁getValue	-7.65549
▁Dimension	-7.70666
▁clear	-7.71742
▁setText	-7.74824
▁split	-7.75524
▁Pattern	-7.76227
▁Connection	-7.76643
▁BigDecimal	-7.77037
▁Float	-7.77724
▁URI	-7.77799
▁endsWith	-7.79935
▁toLowerCase	-7.80107
▁addComponent	-7.8039
▁getAbsolutePath	-7.81808
▁<	-7.82914
▁ClassLoader	-7.84501
▁getString	-7.86645
▁toArray	-7.87551
▁asList	-7.8822
▁Point	-7.89695
▁Throwable	-7.89935
▁compareTo	-7.90449
▁getKey	-7.90899
▁DateFormat	-7.91504
▁elementAt	-7.9235
▁getTime	-7.92906
▁Locale	-7.93279
▁IOException	-7.94272
▁Font	-7.94528
▁LinkedList	-7.9536
▁containsKey	-7.95891
▁Window	-7.96665
▁replace	-7.97178
▁getInstance	-7.98745
▁Default	-7.99647
▁Group	-8.01236
▁FileInputStream	-8.03531
▁Factory	-8.05681
▁PropertyChange	-8.06229
▁start	-8.073
▁Runnable	-8.07776
▁URLConnection	-8.10477
▁lastIndexOf	-8.10668
▁newInstance	-8.11812
▁Rectangle	-8.13991
▁StringWriter	-8.14138
▁replaceAll	-8.1578
▁JComboBox	-8.16267
▁flush	-8.16879
▁max	-8.17134
▁min	-8.17354
▁readLine	-8.1795
▁setEnabled	-8.18216
▁nextInt	-8.18425
▁getText	-8.20242
▁Alignment	-8.21604
▁Data	-8.24274
▁JTable	-8.27018
▁Socket	-8.27135
▁MouseEvent	-8.28952
▁BufferedImage	-8.29404
▁LayoutManager	-8.29832
▁group	-8.29855
▁abs	-8.31593
▁nextToken	-8.31815
▁position	-8.33282
▁hasMoreElements	-8.33957
▁DataInputStream	-8.34965
▁Stack	-8.3517
▁Field	-8.36187
▁matcher	-8.36572
▁forName	-8.37032
▁nextElement	-8.38051
▁getResource	-8.38372
▁NullPointer	-8.39555
▁InetAddress	-8.39652
▁getHeight	-8.40292
▁setVisible	-8.40606
▁addGroup	-8.40878
▁>,	-8.41359
▁Level	-8.41622
▁getWidth	-8.41754
▁JPanel	-8.42279
▁delete	-8.42452
▁setProperty	-8.425
▁toByteArray	-8.4281
▁addAll	-8.43781
▁currentThread	-8.44167
▁toCharArray	-8.45584
▁getPath	-8.47114
▁Listener	-8.48225
▁Element	-8.48342
▁executeQuery	-8.51107
▁Number	-8.51635
▁keySet	-8.52484
▁isDirectory	-8.52545
▁AttributeSet	-8.529
▁ResourceBundle	-8.5343
▁getInt	-8.54639
▁setColor	-8.55669
▁matches	-8.55753
▁BitSet	-8.55825
▁exit	-8.56286
▁Scanner	-8.56468
▁JMenuItem	-8.5703
▁AffineTransform	-8.60331
▁Image	-8.60392
▁Insets	-8.60534
▁Event	-8.60799
▁setLayout	-8.61479
▁toUpperCase	-8.6247
▁Path	-8.63112
▁AtomicInteger	-8.63731
▁getX	-8.64514
▁DocumentBuilder	-8.65021
▁Enum	-8.65787
▁Context	-8.66408
▁DataInput	-8.66474
▁TreeMap	-8.66478
▁AccessFile	-8.66699
▁getNamespaceURI	-8.66977
▁isStartElement	-8.67667
▁getY	-8.68005
▁doubleValue	-8.68535
▁invoke	-8.6888
▁emptyList	-8.69202
▁Rectang	-8.70908
▁ularShape	-8.70908
▁Buffered	-8.714
▁clone	-8.72355
▁getPrefix	-8.72884
▁JList	-8.73491
▁isSelected	-8.74537
▁getSource	-8.7496
▁booleanValue	-8.75359
▁SocketAddress	-8.76172
▁Border	-8.76193
▁JButton	-8.76332
▁getDefault	-8.76534
▁Icon	-8.76592
▁executeUpdate	-8.77887
▁Array	-8.78912
▁parseDouble	-8.78912
▁DataOutput	-8.79407
▁JFrame	-8.79572
▁Filter	-8.7984
▁EventObject	-8.79872
▁execute	-8.80028
▁NumberFormat	-8.80848
▁getLocalPart	-8.8126
▁Toolkit	-8.8192
▁CountDownLatch	-8.82304
▁JMenu	-8.82326
▁longValue	-8.8291
▁Accessible	-8.82971
▁log	-8.82987
▁Simple	-8.8302
▁getInputStream	-8.83386
▁JFileChooser	-8.83703
▁BufferedWriter	-8.83854
▁find	-8.86466
▁Constraints	-8.87126
▁compile	-8.87404
▁readInt	-8.87949
▁TimeZone	-8.88602
▁MutableTreeNode	-8.88649
▁Shape	-8.89089
▁getAttribute	-8.89342
▁getMessage	-8.89353
▁prepareStatement	-8.89702
▁Certificate	-8.89731
▁writeAttribute	-8.90474
▁ZipEntry	-8.92845
▁Property	-8.9331
▁UUID	-8.93746
▁drawLine	-8.93863
▁Key	-8.9411
▁StringReader	-8.94327
▁SwingUtilities	-8.95123
▁Error	-8.95517
▁mkdirs	-8.96399
▁setFont	-8.96513
▁sort	-8.96887
▁MessageDigest	-8.97135
▁JScrollPane	-8.97225
▁isAssignableFrom	-8.97352
▁Concurrent	-8.988
▁_	-8.98897
▁ServerSocket	-8.99085
▁JTextField	-8.99345
▁writeInt	-8.99737
▁parse	-9.00308
▁lock	-9.01226
▁readObject	-9.01572
▁setString	-9.01959
▁Basic	-9.02341
▁TimeUnit	-9.02341
▁toHexString	-9.04013
▁X	-9.04526
▁Short	-9.05083
▁GridBag	-9.05118
▁parseLong	-9.05394
▁Document	-9.05797
▁getComponent	-9.0641
▁getClassLoader	-9.06424
▁setName	-9.06452
▁addElement	-9.06823
▁ObjectName	-9.07119
▁Attribute	-9.07203
▁ListIterator	-9.07485
▁JTree	-9.08152
▁sqrt	-9.08237
▁egorianCalendar	-9.09405
▁isEndElement	-9.10113
▁pow	-9.10375
▁getParent	-9.10462
▁UIManager	-9.10644
▁hasMoreTokens	-9.10674
▁peek	-9.109
▁Descriptor	-9.10995
▁MetaData	-9.11612
▁repaint	-9.12604
▁getSimpleName	-9.12626
▁getMethod	-9.12857
▁getParentFile	-9.13073
▁info	-9.13193
▁Charset	-9.1461
▁setBorder	-9.15119
▁AsStream	-9.15356
▁,?</t>	-9.15394
▁TableModel	-9.15394
▁writeNamespace	-9.16024
▁remaining	-9.16796
▁setPrefix	-9.16905
▁setInt	-9.172
▁Inet	-9.17591
▁Placement	-9.17606
▁addPreferredGap	-9.17943
▁dispose	-9.18037
▁getContentPane	-9.19493
▁TreeSet	-9.19541
▁BorderLayout	-9.20108
▁Attributes	-9.20116
▁AtomicLong	-9.20422
▁ThreadLocal	-9.20502
▁CharBuffer	-9.2131
▁TreePath	-9.21383
▁Process	-9.22289
▁round	-9.22568
▁KeyStore	-9.2265
▁short	-9.22675
▁JOptionPane	-9.23037
▁SelectionModel	-9.2312
▁getContext	-9.23534
▁Transformer	-9.23858
▁isLoggable	-9.2405
▁LinkedHashMap	-9.24753
▁Gr	-9.24786
▁Formatter	-9.25494
▁reset	-9.2552
▁BorderFactory	-9.25528
▁Permission	-9.25774
▁setLength	-9.25834
▁Name	-9.26038
▁AtomicBoolean	-9.26182
▁Action	-9.26438
▁addContainerGap	-9.26549
▁fill	-9.26892
▁entrySet	-9.26961
▁ReadWriteLock	-9.2721
▁JTabbedPane	-9.2746
▁show	-9.27607
▁setBounds	-9.28248
▁sin	-9.28309
▁createStatement	-9.28588
▁Timer	-9.29096
▁Index	-9.30012
▁getParameter	-9.30714
▁Support	-9.3108
▁update	-9.31107
▁values	-9.31178
▁MBeanServer	-9.31286
▁setBackground	-9.33068
▁TableColumn	-9.34753
▁nanoTime	-9.34845
▁toURI	-9.35283
▁getType	-9.35648
▁limit	-9.35938
▁cos	-9.36324
▁wrap	-9.36447
▁Timestamp	-9.36551
▁ImageIcon	-9.36598
▁SecurityManager	-9.37272
▁FileWriter	-9.3772
▁Test	-9.38363
▁509	-9.3845
▁Http	-9.38662
▁View	-9.38691
▁setAccessible	-9.39048
▁FileReader	-9.39204
▁ExecutorService	-9.39233
▁Cursor	-9.39242
▁Byte	-9.39593
▁setSelected	-9.40003
▁ListModel	-9.40091
▁getSize	-9.40336
▁Value	-9.4068
▁KeyEvent	-9.41174
▁getModifiers	-9.41193
▁s	-9.41283
▁Types	-9.4172
▁SQLException	-9.42019
▁Dialog	-9.42118
▁Constructor	-9.42158
▁ImageObserver	-9.42228
▁Comparator	-9.42238
▁listFiles	-9.42268
▁setDefault	-9.42579
▁setHorizontal	-9.4274
▁name	-9.43679
▁getModel	-9.43689
▁JSlider	-9.44597
▁setPreferredSize	-9.4471
▁removeAll	-9.44905
▁join	-9.4511
▁await	-9.45244
▁getRuntime	-9.46333
▁super</t>	-9.46343
▁wait	-9.46468
▁Access	-9.46667
▁load	-9.46813
▁Preferences	-9.47223
▁concat	-9.47275
▁isFile	-9.47549
▁invokeLater	-9.48014
▁addGap	-9.48088
▁writeObject	-9.48142
▁Cipher	-9.48205
▁openConnection	-9.48216
▁parseFloat	-9.48375
▁Reentrant	-9.50211
▁LogRecord	-9.50667
▁setIcon	-9.52346
▁random	-9.52435
▁JPopupMenu	-9.53024
▁allocate	-9.53247
▁printf	-9.53359
▁isNaN	-9.53448
▁Parameter	-9.53964
▁getOutputStream	-9.5505
▁InputEvent	-9.56551
▁DatagramSocket	-9.57095
▁Reference	-9.57153
▁Modifier	-9.57188
▁Callable	-9.57223
▁Lock	-9.57514
▁setSize	-9.57572
▁OutOfBounds	-9.57957
▁FontMetrics	-9.58415
▁BlockingQueue	-9.59171
▁fillRect	-9.59646
▁PoolExecutor	-9.60123
▁Spring	-9.60483
▁Principal	-9.60904
▁FloatBuffer	-9.60976
▁DecimalFormat	-9.61121
▁Provider	-9.61121
▁getSelectedItem	-9.61133
▁AtomicReference	-9.61411
▁Raster	-9.62019
▁NoSuch	-9.62827
▁newDocument	-9.64101
▁MessageFormat	-9.64188
▁getPreferredSize	-9.64926
▁ElementException	-9.65266
▁createTempFile	-9.65278
▁JTextArea	-9.65354
▁openStream	-9.65695
▁fine	-9.6591
▁DatagramPacket	-9.65923
▁LookAndFeel	-9.66164
▁Handler	-9.6624
▁JInternalFrame	-9.67378
▁Frame	-9.67507
▁KeyStroke	-9.67688
▁Builder	-9.67817
▁pop	-9.67972
▁ActionEvent	-9.68751
▁Appendable	-9.68973
▁getLocalName	-9.69353
▁getSelectedIndex	-9.69668
▁encode	-9.69682
▁ReentrantLock	-9.6984
▁printStackTrace	-9.69945
▁Node	-9.69998
▁FileChannel	-9.70051
▁run	-9.70315
▁getDeclared	-9.70554
▁Model	-9.71207
▁toURL	-9.71729
▁Controller	-9.73041
▁getFont	-9.73711
▁setValue	-9.73711
▁getBounds	-9.7404
▁fire	-9.75104
▁init	-9.7523
▁push	-9.75788
▁charValue	-9.75956
▁setTime	-9.76349
▁Box	-9.76433
▁SynthContext	-9.76574
▁JDialog	-9.76602
▁Future	-9.76956
▁setForeground	-9.77012
▁available	-9.78281
▁getPort	-9.78655
▁isArray	-9.78972
▁getLength	-9.78986
▁flip	-9.79102
▁Count	-9.79189
▁elements	-9.79232
▁Queue	-9.79319
▁setLocation	-9.80134
▁randomUUID	-9.80149
▁floatValue	-9.80676
▁ChangeListener	-9.8075
▁CellRenderer	-9.81059
▁getCause	-9.81059
▁GridBagLayout	-9.81222
▁putAll	-9.81325
▁array	-9.81429
▁getConnection	-9.81621
▁DataBuffer	-9.81874
▁decode	-9.82172
▁MethodHandle	-9.82306
▁InitialContext	-9.8289
▁setToolTipText	-9.83176
▁getCanonicalPath	-9.83387
▁notifyAll	-9.83553
▁floor	-9.8378
▁doPrivileged	-9.84145
▁mkdir	-9.8419
▁loadClass	-9.84832
▁lastModified	-9.84954
▁Security	-9.85138
▁Paint	-9.852
▁MessageDialog	-9.85431
▁Line	-9.85461
▁ZipOutputStream	-9.85662
▁EmptyBorder	-9.85909
▁parseBoolean	-9.8608
▁getKeyCode	-9.86173
▁AbstractQueued	-9.8622
▁getSystem	-9.87344
▁ZipFile	-9.87454
▁JSplitPane	-9.87785
▁lookup	-9.8799
▁incrementAndGet	-9.88006
▁JCheckBox	-9.88117
▁doubleToLongBits	-9.88465
▁insert	-9.89007
▁NamespaceContext	-9.89567
▁drawImage	-9.8976
▁getNamespace	-9.89809
▁ComboBoxModel	-9.90115
▁setPaint	-9.90212
▁transform	-9.90309
▁pack	-9.90487
▁XMLEvent	-9.90536
▁default	-9.90568
▁capacity	-9.91252
▁compare	-9.91382
▁connect	-9.9171
▁isWhitespace	-9.91956
▁URLEncoder	-9.92022
▁getTimeInMillis	-9.92402
▁Database	-9.92567
▁interrupt	-9.93181
▁AssertionError	-9.93198
▁readLong	-9.93414
▁MouseListener	-9.93866
▁getPropertyName	-9.9395
▁ColorModel	-9.94017
▁getTimeZone	-9.94454
▁Deflater	-9.94556
▁ObjectInput	-9.94623
▁getLong	-9.94623
▁SecureRandom	-9.9571
▁getSuperclass	-9.96327
▁deleteOnExit	-9.9719
▁lineTo	-9.9785
▁createNewFile	-9.98445
▁ButtonGroup	-9.98691
▁AudioFormat	-9.98938
▁Metal	-9.99433
▁setOpaque	-9.99451
▁KeyPair	-9.99806
▁StyledDocument	-9.99931
▁writeByte	-10
▁writeLong	-10.0084
▁JSpinner	-10.0102
▁translate	-10.0137
▁getFile	-10.014
▁Signature	-10.0156
▁getColor	-10.0171
▁StreamTokenizer	-10.0175
▁C	-10.02
▁cancel	-10.0218
▁DefaultTree	-10.022
▁AbstractAction	-10.0238
▁SAXParser	-10.0271
▁IntBuffer	-10.029
▁AWTEvent	-10.0293
▁StackTrace	-10.0299
▁SampleModel	-10.0384
▁getDeclaredField	-10.0421
▁drawString	-10.0443
▁Mutable	-10.0464
▁Algorithm	-10.0501
▁emptySet	-10.0518
▁ButtonModel	-10.0554
▁readUTF	-10.0671
▁PrivilegedAction	-10.0717
▁JarFile	-10.0719
▁list	-10.0726
▁SocketChannel	-10.0751
▁getByName	-10.084
▁SortedMap	-10.0852
▁is	-10.0893
▁setEditable	-10.0914
▁Impl	-10.0961
▁paint	-10.0973
▁warning	-10.0985
▁DataFlavor	-10.0987
▁getReturnType	-10.1016
▁WindowListener	-10.103
▁countDown	-10.104
▁BasicStroke	-10.1088
▁nextDouble	-10.1157
▁Dictionary	-10.1161
▁getNewValue	-10.1203
▁digest	-10.1276
▁getLocation	-10.1296
▁getActionCommand	-10.1321
▁Source	-10.1357
▁isEnabled	-10.1398
▁Environment	-10.1415
▁check	-10.1431
▁ceil	-10.1433
▁nextFloat	-10.1435
▁Synchronizer	-10.1483
▁Comparable	-10.1485
▁getData	-10.1512
▁end	-10.1551
▁writeUTF	-10.1582
▁Type	-10.1612
▁Inflater	-10.1631
▁Orientation	-10.1652
▁Format	-10.1683
▁isInstance	-10.1709
▁setSelectedIndex	-10.1715
▁CoderResult	-10.1719
▁getHost	-10.1736
▁getAttributes	-10.1747
▁Feature	-10.1787
▁Interrupt	-10.1793
▁JProgressBar	-10.1804
▁hasRemaining	-10.1808
▁getPoint	-10.1858
▁MBean	-10.1871
▁ImageIO	-10.1873
▁replaceFirst	-10.194
▁500	-10.1946
▁ProcessBuilder	-10.1963
▁writeShort	-10.1972
▁getElementText	-10.1985
▁readFully	-10.1989
▁Subject	-10.1996
▁Instance	-10.2005
▁readByte	-10.2024
▁getColumn	-10.2027
▁ibleChannel	-10.2044
▁Notification	-10.2099
▁draw	-10.2108
▁UIDefaults	-10.2132
▁Semaphore	-10.2161
▁CloseOperation	-10.2174
▁getComponentType	-10.2218
▁exec	-10.2225
▁Selector	-10.2234
▁setRequest	-10.2238
▁Service	-10.2245
▁ThreadGroup	-10.2252
▁setModel	-10.2296
▁getDeclar	-10.2314
▁TimerTask	-10.2321
▁getAccessible	-10.2326
▁Executors	-10.2337
▁keys	-10.2362
▁ingClass	-10.2375
▁poll	-10.2382
▁Linked	-10.2414
▁Annotation	-10.243
▁validate	-10.259
▁getKeyStroke	-10.2599
▁signum	-10.2615
▁MenuItem	-10.2646
▁emptyMap	-10.2646
▁JEditorPane	-10.2657
▁getConstructor	-10.2671
▁JMenuBar	-10.2716
▁UnicodeBlock	-10.2718
▁ordinal	-10.2737
▁isDigit	-10.2772
▁accept	-10.2781
▁getDocument	-10.2788
▁TextField	-10.28
▁getID	-10.2838
▁RenderedImage	-10.284
▁SelectionKey	-10.285
▁SpringLayout	-10.2852
▁setVerticalGroup	-10.2852
▁ItemEvent	-10.2854
▁gc	-10.2857
▁getBackground	-10.2883
▁IIOMetadataNode	-10.2904
▁compareAndSet	-10.2904
▁A	-10.2907
▁multiply	-10.2981
▁getAddress	-10.3003
▁nextLong	-10.3022
▁Configuration	-10.3024
▁exp	-10.3029
▁getHostAddress	-10.3031
▁Parameters	-10.3036
▁singleton	-10.3094
▁ParameterSpec	-10.3136
▁newLine	-10.315
▁ByteOrder	-10.3244
▁curveTo	-10.3261
▁listIterator	-10.3306
▁Area	-10.3318
▁DriverManager	-10.3323
▁ActionMap	-10.3333
▁LinkedHashSet	-10.3333
▁ComponentUI	-10.3335
▁writeCharacters	-10.3355
▁putInt	-10.3403
▁getRGB	-10.3405
▁Proxy	-10.3418
▁Menu	-10.345
▁FlowLayout	-10.3503
▁getLocalHost	-10.3503
▁isPrimitive	-10.3524
▁getLast	-10.3531
▁ZipInputStream	-10.3564
▁addMouseListener	-10.3577
▁getLogger	-10.3585
▁order	-10.361
▁toExternalForm	-10.3649
▁writeBoolean	-10.3654
▁atan	-10.3656
▁izedType	-10.3682
▁singletonList	-10.3716
▁of	-10.3781
▁FocusManager	-10.3807
▁Info	-10.3807
▁readBoolean	-10.3885
▁canRead	-10.3919
▁Executor	-10.3925
▁IndexOutOfBounds	-10.3935
▁getSelectedFile	-10.3935
▁ObjectStream	-10.3954
▁DataSource	-10.3967
▁getElement	-10.4002
▁getObject	-10.4015
▁Symbols	-10.4025
▁ObjectOutput	-10.4049
▁notify	-10.4079
▁ManagerFactory	-10.4119
▁IdentityHashMap	-10.4141
▁getProtocol	-10.4214
▁Manifest	-10.4236
▁getAbsoluteFile	-10.4238
▁ParsePosition	-10.4241
▁writeBytes	-10.4249
▁getGraphics	-10.4257
▁invokeExact	-10.4279
▁getFontMetrics	-10.4282
▁getPackage	-10.4301
▁getMetaData	-10.4304
▁isVisible	-10.4307
▁setActionCommand	-10.4315
▁Tag	-10.4364
▁SSLContext	-10.4367
▁Keyboard	-10.4381
▁setLong	-10.4409
▁Invalid	-10.442
▁schedule	-10.4453
▁getInsets	-10.4475
▁setMinimumSize	-10.4489
▁seek	-10.4537
▁Callback	-10.4542
▁Composite	-10.4545
▁binarySearch	-10.4554
▁getField	-10.4585
▁Result	-10.459
▁StyleSheet	-10.4607
▁getBoolean	-10.461
▁N	-10.4633
▁getBundle	-10.4672
▁getRed	-10.4681
▁BasicTreeUI	-10.4684
▁mark	-10.4695
▁getColumnModel	-10.4701
▁StartElement	-10.4709
▁setRenderingHint	-10.4727
▁cast	-10.4744
▁Robot	-10.4747
▁JAXBElement	-10.4761
▁getEncoded	-10.4775
▁getResponseCode	-10.481
▁setCursor	-10.4813
▁submit	-10.4847
▁unmodifiableList	-10.4874
▁setComposite	-10.4882
▁getChannel	-10.4906
▁getColumnCount	-10.497
▁writeLock	-10.4979
▁getGreen	-10.4981
▁opyOnWriteArray	-10.4981
▁BeanContext	-10.5002
▁DirContext	-10.5002
▁getBlue	-10.5002
▁Generator	-10.5034
▁Stroke	-10.5097
▁rewind	-10.51
▁StrictMath	-10.5114
▁KeyFactory	-10.5132
▁TabbedPaneUI	-10.5144
▁JScrollBar	-10.5162
▁ForLength	-10.5165
▁getScheme	-10.5168
▁isAlive	-10.518
▁DocumentEvent	-10.5204
▁ableChannel	-10.5237
▁CertSelector	-10.5243
▁ReadObject	-10.5246
▁getCanonicalName	-10.5255
▁renameTo	-10.5255
▁waitFor	-10.5276
▁GridLayout	-10.5279
▁getProperties	-10.5285
▁P	-10.5319
▁skip	-10.5328
▁LayoutCache	-10.5389
▁32.	-10.5398
▁containsAll	-10.5401
▁Package	-10.5407
▁getGeneric	-10.5422
▁JToolBar	-10.5438
▁setDaemon	-10.545
▁first	-10.5493
▁Attributed	-10.5496
▁setStroke	-10.5508
▁StreamResult	-10.5521
▁revalidate	-10.5527
▁StreamSource	-10.5536
▁commit	-10.5546
▁Naming	-10.5552
▁FileFilter	-10.5574
▁countTokens	-10.5574
▁AbstractMap	-10.5583
▁HTMLDocument	-10.5583
▁setMnemonic	-10.5589
▁ListenerList	-10.5602
▁JAXBContext	-10.5627
▁2(	-10.5633
▁toRadians	-10.5645
▁EventQueue	-10.568
▁copyOf	-10.5772
▁shortValue	-10.5775
▁ContentModel	-10.5813
▁getValueAt	-10.5813
▁isInfinite	-10.5826
▁subList	-10.5858
▁Button	-10.5887
▁nextBytes	-10.5954
▁IgnoreCase	-10.5958
▁InputMap	-10.597
▁Channel	-10.6019
▁SkipListMap	-10.6029
▁EnumMap	-10.6052
▁readShort	-10.6071
▁readLock	-10.6094
▁CharsetEncoder	-10.6111
▁PathComponent	-10.6117
▁MouseAdapter	-10.6127
▁ItemListener	-10.6157
▁SSLEngine	-10.616
▁CellEditor	-10.617
▁getCurrent	-10.6203
▁BoxLayout	-10.6206
▁MethodType	-10.6223
▁shutdown	-10.625
▁byteValue	-10.6293
▁setViewportView	-10.631
▁Time	-10.6326
▁LineNumber	-10.6337
▁scale	-10.6343
▁getUserObject	-10.6357
▁intern	-10.638
▁setTitle	-10.6384
▁getClassName	-10.6394
▁JFormatted	-10.6468
▁ComponentEvent	-10.652
▁SearchControls	-10.654
▁getDouble	-10.655
▁createGraphics	-10.6578
▁socket	-10.6609
▁JRadioButton	-10.6623
▁Size	-10.664
▁Polygon	-10.6647
▁AlphaComposite	-10.6661
▁DatagramChannel	-10.6661
▁getShort	-10.6699
▁identityHashCode	-10.6723
▁Synth	-10.6751
▁subtract	-10.6755
▁deleteCharAt	-10.6787
▁Bias	-10.6811
▁newTransformer	-10.6864
▁SortedSet	-10.6878
▁GradientPaint	-10.695
▁getLocalPort	-10.696
▁NotSupported	-10.6975
▁JViewport	-10.6982
▁getSelection	-10.6982
▁requestFocus	-10.6989
▁EOFException	-10.7021
▁TreeNode	-10.7021
▁URLClassLoader	-10.7036
▁FileNotFound	-10.7079
▁getChars	-10.7083
▁TextPosition	-10.7101
▁FileChooserUI	-10.7108
▁setAutoCommit	-10.7115
▁TextComponent	-10.713
▁PriorityQueue	-10.7133
▁getHostName	-10.7162
▁consume	-10.7181
▁unlock	-10.7181
▁addSeparator	-10.7192
▁CyclicBarrier	-10.7221
▁WritableRaster	-10.7236
▁floatToIntBits	-10.7273
▁B	-10.7287
▁SSLSocket	-10.7291
▁getClickCount	-10.7321
▁getStateChange	-10.7339
▁XMLInputFactory	-10.7361
▁WeakHashMap	-10.7365
▁getStartOffset	-10.7373
▁getRowCount	-10.7384
▁addAttribute	-10.7395
▁Mac	-10.7414
▁getSelectedRow	-10.7421
▁FocusListener	-10.7425
▁LogManager	-10.7425
▁CompositeView	-10.7429
▁open	-10.7429
▁Tree	-10.744
▁WriteObject	-10.7462
▁Adapter	-10.7474
▁annotationType	-10.7485
▁setRequestMethod	-10.7496
▁CodeSource	-10.7515
▁setTimeInMillis	-10.7564
▁EnumSet	-10.7587
▁Condition	-10.7595
▁doFinal	-10.761
▁CertPath	-10.7622
▁setTimeZone	-10.7629
▁CharsetDecoder	-10.7641
▁getOffset	-10.7671
▁BoxView	-10.7718
▁bind	-10.7776
▁Files	-10.7779
▁getLanguage	-10.7791
▁Parser	-10.7807
▁Width	-10.783
▁getenv	-10.783
▁setContext	-10.7838
▁URLDecoder	-10.7846
▁moveTo	-10.7846
▁etworkInterface	-10.7861
▁TreeModel	-10.7865
▁setTransform	-10.7869
▁PropertyEditor	-10.7893
▁AbstractSelect	-10.7916
▁getIndex	-10.7936
▁setMaximumSize	-10.794
▁setDoOutput	-10.7963
▁isStatic	-10.7971
▁CRC	-10.7983
▁arrayOffset	-10.8007
▁containsValue	-10.8047
▁1()</t>	-10.8055
▁UndoableEdit	-10.8059
▁isJavaIdentifier	-10.8063
▁CharArrayWriter	-10.8099
▁addItemListener	-10.8099
▁stop	-10.8131
▁NavigableMap	-10.8135
▁drawRect	-10.8139
▁putShort	-10.8171
▁addItem	-10.8183
▁Management	-10.8208
▁writeEndElement	-10.8228
▁FilenameFilter	-10.8244
▁getTransform	-10.8256
▁previous	-10.8268
▁release	-10.8285
▁setFocusable	-10.8318
▁isPublic	-10.8326
▁Message	-10.8363
▁getAnnotation	-10.8379
▁Strut	-10.8408
▁GeneralPath	-10.8412
▁Piped	-10.8416
▁getAndIncrement	-10.842
▁DoubleBuffer	-10.8433
▁State	-10.8474
▁FieldUpdater	-10.8508
▁ImageReader	-10.8516
▁AbstractList	-10.8545
▁MathContext	-10.8545
▁finest	-10.8545
▁In	-10.8617
▁ShortBuffer	-10.8621
▁getIcon	-10.8625
▁KeyListener	-10.8651
▁setAttribute	-10.8663
▁insertString	-10.8697
▁getEndOffset	-10.8753
▁select	-10.8757
▁setOutput	-10.8766
▁isClosed	-10.8774
▁createHorizontal	-10.8787
▁DropTargetD	-10.8791
▁setSoTimeout	-10.88
▁Bidi	-10.8808
▁NamespaceAware	-10.8847
▁isAbsolute	-10.8852
▁PathIterator	-10.8886
▁Directory	-10.8904
▁Collator	-10.896
▁DefaultList	-10.896
▁MotionListener	-10.8986
▁unmappable	-10.8991
▁HTML	-10.9
▁RenderContext	-10.9
▁DefaultTable	-10.9017
▁readUnsigned	-10.9035
▁setScale	-10.9043
▁getStackTrace	-10.9048
▁setLevel	-10.9048
▁putNextEntry	-10.9052
▁NavigableSet	-10.9057
▁getMaximum	-10.9057
▁JRootPane	-10.9066
▁S	-10.9083
▁finer	-10.9119
▁setMaximum	-10.9119
▁Elements	-10.915
▁nextLine	-10.9176
▁Location	-10.9185
▁TextLayout	-10.9185
▁getImage	-10.9194
▁unmodifiableMap	-10.9194
▁WriteLock	-10.9203
▁canWrite	-10.9217
▁TraversalPolicy	-10.9221
▁WindowAdapter	-10.923
▁Listeners	-10.9244
▁getItem	-10.9253
▁Observable	-10.9271
▁To	-10.928
▁getUI	-10.928
▁2()</t>	-10.9293
▁PixelPacked	-10.9302
▁getDate	-10.932
▁setVertical	-10.932
▁JTableHeader	-10.9347
▁getId	-10.9347
▁getView	-10.937
▁Table	-10.9375
▁getLayout	-10.9375
▁SoftReference	-10.9379
▁getForeground	-10.9388
▁divide	-10.9416
▁deepEquals	-10.9439
▁createT	-10.9448
▁getSelected	-10.9462
▁JMXConnector	-10.9554
▁stringWidth	-10.9559
▁Start	-10.961
▁Segment	-10.9614
▁getPredefined	-10.9633
▁Applet	-10.9638
▁getMinimumSize	-10.9642
▁itledBorder	-10.9642
▁Transferable	-10.9647
▁setConstraints	-10.9661
▁isUpperCase	-10.967
▁yield	-10.9675
▁getActual	-10.9694
▁match	-10.9708
▁Deque	-10.9722
▁LinkedQueue	-10.9727
▁TypeArguments	-10.975
▁getTimestamp	-10.9803
▁severe	-10.9807
▁getErrorStream	-10.9812
▁deriveFont	-10.9836
▁singletonMap	-10.9903
▁getAlgorithm	-10.9936
▁CompositeName	-10.9961
▁getMethods	-10.9961
▁isInterface	-10.999
▁Iterable	-10.9999
▁ArrayDeque	-11.0043
▁getStyle	-11.0048
▁unmodifiableSet	-11.0048
▁Actions	-11.0058
▁SelectionManager	-11.0072
▁store	-11.0092
▁oundedRangeModel	-11.0165
▁Interval	-11.017
▁getPrivate	-11.0195
▁Privileged	-11.0215
▁getIconWidth	-11.0215
▁ClassName	-11.022
▁ScheduledThread	-11.0259
▁resolve	-11.0259
▁StyleConstants	-11.0264
▁getRootPane	-11.0264
▁GZIPInputStream	-11.0269
▁getViewport	-11.0289
▁JSeparator	-11.0334
▁KeySpec	-11.0344
▁subSequence	-11.0344
▁Multi	-11.0349
▁removeFirst	-11.0369
▁createVertical	-11.0374
▁convert	-11.04
▁Stream	-11.0415
▁Position	-11.0445
▁isLetter	-11.0481
▁Password	-11.0496
▁Background	-11.0516
▁wasNull	-11.0516
▁getSelectedValue	-11.0547
▁ColorSpace	-11.0557
▁XPathFactory	-11.0557
▁Manager	-11.0562
▁getButton	-11.0567
▁LongSynchronizer	-11.0578
▁before	-11.0588
▁allocateDirect	-11.0603
▁SocketFactory	-11.0614
▁FieldPosition	-11.0619
▁fireTable	-11.0624
▁getState	-11.0655
▁isDone	-11.0655
▁LdapName	-11.0665
▁UI	-11.0681
▁nextBoolean	-11.0691
▁getFirst	-11.0707
▁putValue	-11.0733
▁IndexColorModel	-11.0738
▁Address	-11.0806
▁Supported	-11.0832
▁after	-11.0838
▁getCanonicalFile	-11.0854
▁setCaretPosition	-11.0864
▁SelectionIndex	-11.0938
▁interrupted	-11.096
▁FractionDigits	-11.097
▁hasArray	-11.0976
▁getMinY	-11.0981
▁ScriptEngine	-11.0986
▁Vetoable	-11.0992
▁setColumns	-11.1013
▁Mouse	-11.1029
▁retainAll	-11.1035
▁Label	-11.1045
▁BasicSliderUI	-11.1056
▁AccessibleJ	-11.111
▁ElementSpec	-11.1132
▁SimpleTimeZone	-11.1132
▁SOAPMessage	-11.1137
▁SelectionEvent	-11.1148
▁createLineBorder	-11.1153
▁acquire	-11.1159
▁Control	-11.1164
▁ThreadInfo	-11.1164
▁ElementBuffer	-11.117
▁Unmarshaller	-11.117
▁setCharAt	-11.1192
▁closePath	-11.1208
▁getResultSet	-11.1213
▁Audio	-11.1224
▁entries	-11.1241
▁CSS	-11.1263
▁GlyphView	-11.1263
▁SequentialList	-11.1268
▁isLetterOrDigit	-11.1268
▁TitledBorder	-11.1301
▁getKeyChar	-11.1307
▁LongBuffer	-11.1318
▁getBuffer	-11.1323
▁GZIP	-11.1329
▁SynthPainter	-11.134
▁getMinX	-11.134
▁ing	-11.134
▁Ex	-11.1373
▁getColumnName	-11.1396
▁getProvider	-11.1407
▁DataHandler	-11.1446
▁IsAdjusting	-11.1452
▁setSelectedItem	-11.1485
▁configure	-11.1502
▁getMain	-11.1502
▁Part	-11.1508
▁PrintService	-11.1553
▁Policy	-11.1587
▁BreakIterator	-11.1593
▁getBorder	-11.1593
▁FileDialog	-11.1598
▁isOpen	-11.1627
▁d	-11.1632
▁3	-11.1644
▁M	-11.1644
▁Rdn	-11.1644
▁StyleContext	-11.1644
▁EtchedBorder	-11.1655
▁getLevel	-11.1667
▁setD	-11.1678
▁isInterrupted	-11.169
▁longBitsToDouble	-11.1695
▁Methods	-11.1718
▁BlockingDeque	-11.1724
▁Trust	-11.173
▁Clipboard	-11.1753
▁RemoteCall	-11.1753
▁setNull	-11.177
▁FutureTask	-11.1782
▁ExceptionAction	-11.1788
▁getContent	-11.1788
▁readDouble	-11.1788
▁addLast	-11.1793
▁ividerLocation	-11.1793
▁getChildCount	-11.1799
▁CertStore	-11.1846
▁getEntry	-11.1857
▁newSAXParser	-11.1869
▁checkPermission	-11.1881
▁uninstall	-11.1881
▁createXMLStream	-11.1887
▁ReadLock	-11.1892
▁Synchronous	-11.1928
▁Introspector	-11.1939
▁getPublic	-11.1945
▁UIResource	-11.1957
▁InternalError	-11.1969
▁getOrientation	-11.1981
▁SecretKeySpec	-11.201
▁JPasswordField	-11.2016
▁invalidate	-11.2016
▁ruptedException	-11.2016
▁addKeyListener	-11.2028
▁setRGB	-11.2028
▁setMargin	-11.2058
▁setObject	-11.2064
▁ListCellRenderer	-11.2076
▁Text	-11.2094
▁BasicAttribute	-11.21
▁reverse	-11.2135
▁InternalFrame	-11.2147
▁TransferHandler	-11.2171
▁getIconHeight	-11.2184
▁ByteChannel	-11.219
▁CastException	-11.219
▁Modification	-11.219
▁isLeftToRight	-11.2214
▁readFloat	-11.222
▁setResizable	-11.2232
▁ed	-11.2238
▁getCertificate	-11.2238
▁AttributeInfo	-11.2268
▁Choice	-11.2274
▁register	-11.2287
▁addBatch	-11.2299
▁addTab	-11.2317
▁PublicKey	-11.2341
▁SOAPElement	-11.2341
▁ParseException	-11.2391
▁DebugGraphics	-11.2409
▁Annotations	-11.2421
▁getInetAddress	-11.2421
▁>,)</t>	-11.2446
▁getRequest	-11.2446
▁OnScreen	-11.2459
▁offer	-11.2471
▁ImageWriter	-11.2477
▁ScrollBar	-11.2477
▁Ancestor	-11.2483
▁DefaultCaret	-11.2483
▁digit	-11.249
▁destroy	-11.2502
▁DocumentListener	-11.2508
▁Memory	-11.2527
▁Encoding	-11.2533
▁Inter	-11.2533
▁createSocket	-11.2539
▁SynthStyle	-11.2564
▁generate	-11.2571
▁Spinner	-11.2577
▁BasicSplitPane	-11.2621
▁send	-11.2627
▁Child	-11.2634
▁getReadMethod	-11.2634
▁EditorKit	-11.2671
▁Blocking	-11.269
▁ListSelection	-11.269
▁m	-11.2735
▁For	-11.2741
▁invokeAndWait	-11.2754
▁Panel	-11.276
▁Arc	-11.2767
▁getColorModel	-11.2767
▁isPopupTrigger	-11.2773
▁getMinimum	-11.2799
▁regionMatches	-11.2799
▁getP	-11.2805
▁W	-11.2812
▁freeMemory	-11.2812
▁KeyGenerator	-11.2863
▁empty	-11.2863
▁setLookAndFeel	-11.2863
▁Pushback	-11.287
▁isValid	-11.2876
▁getFloat	-11.2895
▁Pro	-11.2915
▁getRaster	-11.2915
▁CompositeData	-11.2941
▁getNextEntry	-11.2941
▁SSLSession	-11.2947
▁MidiMessage	-11.2954
▁Validator	-11.2967
▁Checkbox	-11.3
▁L	-11.3
▁InternalFrameUI	-11.3006
▁JavaFileObject	-11.3026
▁getMethodName	-11.3026
▁closeEntry	-11.3032
▁FixedThreadPool	-11.3052
▁Blob	-11.3065
▁getInterfaces	-11.3072
▁useLocale	-11.3072
▁GetField	-11.3078
▁Paths	-11.3092
▁implies	-11.3111
▁getAlpha	-11.3131
▁getEditor	-11.3144
▁copyOfRange	-11.3151
▁Xid	-11.3184
▁actionPerformed	-11.3191
▁HTMLReader	-11.3198
▁setSelection	-11.3198
▁unmarshal	-11.3198
▁PKIXParameters	-11.3204
▁RelativeTo	-11.3238
▁Timeout	-11.3238
▁PageFormat	-11.3245
▁take	-11.3258
▁XMLGr	-11.3278
▁DatatypeFactory	-11.3305
▁SwingWorker	-11.3305
▁ThreadMXBean	-11.3305
▁constant	-11.3305
▁ControlContext	-11.3312
▁getClient	-11.3319
▁setPreferred	-11.3319
▁readUnsignedByte	-11.3346
▁BindingProvider	-11.3366
▁isReadOnly	-11.3379
▁vocationHandler	-11.3386
▁getElementAt	-11.34
▁getRawType	-11.34
▁getOldValue	-11.3407
▁MatchResult	-11.3413
▁GraphicsDevice	-11.342
▁CubicCurve	-11.3427
▁showOpenDialog	-11.3454
▁shutdownNow	-11.3454
▁R	-11.3468
▁JMXServiceURL	-11.3475
▁EventListener	-11.3503
▁TableModelEvent	-11.353
▁ColorUIResource	-11.3537
▁ConfirmDialog	-11.3551
▁RefAddr	-11.3551
▁getColumnType	-11.3551
▁getFormat	-11.3551
▁parseShort	-11.3551
▁putClient	-11.3551
▁getCountry	-11.3572
▁JarOutputStream	-11.3578
▁getVertical	-11.3585
▁process	-11.3585
▁getAscent	-11.3592
▁WindowEvent	-11.3599
▁Clob	-11.3634
▁ScrollBarUI	-11.3641
▁paintComponent	-11.3655
▁Layout	-11.3669
▁U	-11.3718
▁MemoryUsage	-11.3746
▁TypeMirror	-11.376
▁JavaFileManager	-11.3767
▁groupCount	-11.3767
▁supports	-11.3774
▁getDisplayName	-11.3789
▁StringCharacter	-11.3796
▁CardLayout	-11.381
▁getTable	-11.381
▁ChangeEvent	-11.3831
▁setTimestamp	-11.3831
▁SSLEngineResult	-11.386
▁addFocusListener	-11.386
▁getPassword	-11.3867
▁DataChanged	-11.3874
▁getHeaderField	-11.3902
▁type	-11.391
▁nextGaussian	-11.3917
▁getCharacter	-11.3924
▁writeDouble	-11.396
▁ready	-11.3996
▁bitLength	-11.4003
▁Resource	-11.4032
▁setMinimum	-11.4032
▁IIOMetadata	-11.4047
▁getScreenSize	-11.4047
▁intBitsToFloat	-11.4047
▁._	-11.4061
▁Focus	-11.4076
▁BasicAttributes	-11.4083
▁ToGeneric	-11.4083
▁PushbackReader	-11.4098
▁ScrollBarPolicy	-11.4098
▁getWindow	-11.4098
▁SocketException	-11.4105
▁HttpCookie	-11.412
▁FeatureInfo	-11.4127
▁Marshaller	-11.4156
▁setInput	-11.4163
▁do	-11.4171
▁AbstractQueue	-11.4186
▁Currency	-11.4186
▁Desktop	-11.4193
▁getLineNumber	-11.4193
▁getLocalized	-11.4208
▁getMax	-11.4208
▁updateUI	-11.4208
▁SQLFeature	-11.423
▁Bits	-11.4237
▁RoundingMode	-11.4267
▁ropEvent	-11.4267
▁KeyManager	-11.4282
▁initialize	-11.4282
▁getAll	-11.4289
▁AbstractWriter	-11.4297
▁XAResource	-11.4297
▁DocFlavor	-11.4326
▁DragSource	-11.4326
▁BeanInfo	-11.4349
▁BasicListUI	-11.4371
▁createImage	-11.4386
▁getS	-11.4394
▁From	-11.4401
▁getItemCount	-11.4409
▁getDateInstance	-11.4416
▁toDegrees	-11.4416
▁ReferenceQueue	-11.4424
▁getMaxY	-11.4432
▁addAndGet	-11.4485
▁BasicTextUI	-11.4507
▁isShowing	-11.4523
▁JTextPane	-11.453
▁StateSet	-11.453
▁numberOf	-11.4545
▁getEventType	-11.4561
▁getChild	-11.4568
▁getListeners	-11.4576
▁to	-11.4591
▁awaitTermination	-11.4599
▁TypeVariable	-11.4614
▁setOut	-11.4614
▁setSelectionMode	-11.4614
▁Scheduled	-11.4637
▁clearSelection	-11.4637
▁AudioSystem	-11.4645
▁unmodifiable	-11.4661
▁getMaxX	-11.4676
▁setAccelerator	-11.4692
▁hasMore	-11.4699
▁tectionDomain	-11.4746
▁removeElementAt	-11.4754
▁getActionMap	-11.4777
▁mod	-11.4785
▁ChangeSupport	-11.4793
▁DataLine	-11.4801
▁DropTar	-11.4808
▁Mode	-11.4816
▁isAccessible	-11.4824
▁JavaCompiler	-11.484
▁MBeanInfo	-11.4848
▁MouseButton	-11.4856
▁RowSetMetaData	-11.4863
▁enumeration	-11.4863
▁negate	-11.4863
▁codePointAt	-11.4871
▁totalMemory	-11.4879
▁PlainDocument	-11.4895
▁Separator	-11.4919
▁getPublicKey	-11.4919
▁rotate	-11.4927
▁addPoint	-11.4966
▁hasPrevious	-11.4966
▁last	-11.4998
▁decrementAndGet	-11.5022
▁Single	-11.5038
▁addFirst	-11.5046
▁getQuery	-11.5078
▁getWriteMethod	-11.5078
▁Expression	-11.5087
▁TextHitInfo	-11.5087
▁tan	-11.5103
▁SubMap	-11.5111
▁isConnected	-11.5119
▁toMillis	-11.5119
▁Secret	-11.5127
▁setPriority	-11.5135
▁Style	-11.5159
▁writeFloat	-11.5184
▁getPrincipals	-11.5224
▁AbstractSet	-11.5257
▁CachedThreadPool	-11.5257
▁GlyphVector	-11.5257
▁PopupMenu	-11.5265
▁getN	-11.5265
▁>>)</t>	-11.5298
▁getDateTime	-11.5315
▁marshaller	-11.5323
▁Enabled	-11.5339
▁Spi	-11.5348
▁JarInputStream	-11.5364
▁PutField	-11.5373
▁getSQLState	-11.5373
▁getComponents	-11.5381
▁getRoot	-11.5381
▁LoginContext	-11.5389
▁TrustManager	-11.5389
▁getAndSet	-11.5389
▁createCompatible	-11.5398
▁isAnnotation	-11.5406
▁AWTKeyStroke	-11.5431
▁getURL	-11.5431
▁Digest	-11.5439
▁setClip	-11.5439
▁setFile	-11.5456
▁createUn	-11.5481
▁getKind	-11.5489
▁getContentType	-11.5515
▁call	-11.5523
▁executeBatch	-11.5531
▁ClassNotFound	-11.5548
▁Un	-11.5557
▁getD	-11.5582
▁getRow	-11.5582
▁F	-11.5616
▁isAttribute	-11.5616
▁ScrollPane	-11.5625
▁getCaretPosition	-11.5625
▁getNumBanks	-11.5625
▁getTabCount	-11.5642
▁getC	-11.565
▁putLong	-11.5684
▁FileDescriptor	-11.5693
▁HTMLEditorKit	-11.5701
▁er	-11.5718
▁malformed	-11.5727
▁AttributeList	-11.5736
▁Selection	-11.5736
▁caughtException	-11.5736
▁StreamHandler	-11.5744
▁Closeable	-11.5753
▁ThreadFactory	-11.5761
▁Monitor	-11.5796
▁MessageFactory	-11.5805
▁es	-11.5805
▁WeakReference	-11.5813
▁XMLEventReader	-11.5813
▁CompoundName	-11.5831
▁showInputDialog	-11.5831
▁setValidating	-11.5857
▁Caret	-11.5874
▁getAuthority	-11.5927
▁propertyNames	-11.5927
▁setSeed	-11.5935
▁HyperlinkEvent	-11.5953
▁FileSystem	-11.5962
▁setDoInput	-11.5962
▁ChangeListeners	-11.5997
▁FileObject	-11.6015
▁verify	-11.6024
▁FilePermission	-11.605
▁KeyException	-11.605
▁WebService	-11.605
▁receive	-11.605
▁UndoManager	-11.6077
▁defaultCharset	-11.6077
▁Writable	-11.6103
▁getBeanInfo	-11.6103
▁isDirect	-11.6103
▁RenderingHints	-11.6121
▁Coding	-11.613
▁install	-11.6139
▁parseByte	-11.6139
▁At	-11.6157
▁KeyAdapter	-11.6157
▁Priority	-11.6166
▁setAction	-11.6166
▁Wrapper	-11.6175
▁Present	-11.6184
▁MetalTheme	-11.6193
▁OptionPaneUI	-11.6202
▁Arithmetic	-11.622
▁JLayeredPane	-11.622
▁RowSorter	-11.6229
▁disconnect	-11.6238
▁NameClassPair	-11.6274
▁TrustAnchor	-11.6274
▁isEnum	-11.6274
▁ErrorAction	-11.6293
▁finish	-11.6302
▁Ellipse	-11.632
▁Length	-11.6329
▁Descriptors	-11.6338
▁FileSystemView	-11.6356
▁getSampleModel	-11.6356
▁AccessibleAWT	-11.6366
▁Sequence	-11.6375
▁ConditionObject	-11.6393
▁setIndex	-11.6402
▁Replacement	-11.6411
▁RoundRectangle	-11.6411
▁p	-11.6421
▁ShortMessage	-11.6448
▁intersects	-11.6448
▁LookAndFeelInfo	-11.6458
▁J	-11.6467
▁Kerberos	-11.6476
▁QuadCurve	-11.6476
▁ImageWriteParam	-11.6495
▁Permissions	-11.6504
▁getByAddress	-11.6504
▁setCurrent	-11.6522
▁getErrorCode	-11.6532
▁PrinterJob	-11.6578
▁Offset	-11.6588
▁nativeOrder	-11.6588
▁TextArea	-11.6607
▁Values	-11.6616
▁Hash	-11.6625
▁Protection	-11.6625
▁getLocalGraphics	-11.6625
▁getNext	-11.6625
▁exitValue	-11.6635
▁paintIcon	-11.6635
▁getMaximumSize	-11.6644
▁duplicate	-11.6654
▁Initial	-11.6672
▁10(	-11.6682
▁JDesktopPane	-11.6701
▁Member	-11.671
▁Glue	-11.672
▁Multith	-11.672
▁Names	-11.672
▁readedTest	-11.672
▁Encoder	-11.6729
▁getChildAt	-11.6739
▁MulticastSocket	-11.6758
▁BasicToolBarUI	-11.6777
▁Checksum	-11.6786
▁getCount	-11.6796
▁quote	-11.6796
▁BevelBorder	-11.6806
▁setLabelFor	-11.6825
▁OperationInfo	-11.6834
▁getTreeLock	-11.6834
▁Delegate	-11.6844
▁Direct	-11.6844
▁MethodHandles	-11.6844
▁getFilePointer	-11.6844
▁getR	-11.6844
▁nextIndex	-11.6844
▁getHorizontal	-11.6853
▁Foreground	-11.6863
▁XMLEncoder	-11.6873
▁handleEntity	-11.6873
▁removeLast	-11.6882
▁DelayQueue	-11.6902
▁NumberModel	-11.6902
▁darker	-11.6911
▁skipBytes	-11.6911
▁SpinnerModel	-11.6921
▁search	-11.6921
▁rollback	-11.695
▁FormatSymbols	-11.6989
▁node	-11.6999
▁1	-11.7057
▁getTitle	-11.7057
▁requestFocusIn	-11.7057
▁getListenerList	-11.7067
▁registerOut	-11.7067
▁setUseCaches	-11.7067
▁getPlatform	-11.7077
▁ICC	-11.7107
▁putIfAbsent	-11.7117
▁ConcurrentMap	-11.7126
▁getPropertyType	-11.7126
▁SelectionMode	-11.7146
▁getEncoding	-11.7146
▁tryLock	-11.7156
▁KeyAgreement	-11.7196
▁has	-11.7206
▁isControlDown	-11.7206
▁>[],	-11.7236
▁<?>)</t>	-11.7246
▁addShutdownHook	-11.7286
▁isEndDocument	-11.7336
▁BasicComboBoxUI	-11.7346
▁ooledConnection	-11.7346
▁getSampleSize	-11.7356
▁setChanged	-11.7356
▁Authenticator	-11.7377
▁RowSet	-11.7377
▁sURLConnection	-11.7407
▁AtomicLongArray	-11.7417
▁ragEvent	-11.7427
▁Asynchronous	-11.7438
▁getFocus	-11.7438
▁newXPath	-11.7478
▁CipherSuites	-11.7489
▁setLastModified	-11.7489
▁Lookup	-11.7499
▁XMLOutput	-11.7499
▁OpenMBean	-11.7519
▁createRigidArea	-11.7519
▁getElementCount	-11.7519
▁setUI	-11.7519
▁c	-11.753
▁<?>,	-11.754
▁e	-11.754
▁interestOps	-11.755
▁setDate	-11.7561
▁createMarshaller	-11.7571
▁getResources	-11.7571
▁slice	-11.7581
▁NamingException	-11.7592
▁getDesktop	-11.7592
▁firstElement	-11.7602
▁getDisplay	-11.7602
▁newProxyInstance	-11.7602
▁setContentPane	-11.7602
▁getControl	-11.7612
▁JColorChooser	-11.7633
▁RemoteRef	-11.7633
▁getMenu	-11.7643
▁setErr	-11.7643
▁Bounds	-11.7654
▁setBorderPainted	-11.7664
▁TreeModelEvent	-11.7675
▁[][],	-11.7685
▁ParameterInfo	-11.7696
▁getDefaults	-11.7696
▁addListSelection	-11.7706
▁acos	-11.7717
▁MenuComponent	-11.7759
▁Row	-11.7769
▁forDigit	-11.7769
▁Indices	-11.779
▁l	-11.779
▁ListDataEvent	-11.7801
▁ParameterTypes	-11.7801
▁newSingleThread	-11.7801
▁Column	-11.7822
▁XMLSignature	-11.7822
▁setAlignmentX	-11.7833
▁un	-11.7833
▁Components	-11.7854
▁XPath	-11.7854
▁CallbackHandler	-11.7864
▁getMin	-11.7875
▁isRegistered	-11.7875
▁DispatchThread	-11.7918
▁DropTarget	-11.7918
▁ElementIterator	-11.7918
▁getYear	-11.7918
▁Change	-11.7928
▁ToVisible	-11.7928
▁6.	-11.795
▁setRollover	-11.795
▁firstKey	-11.7961
▁finalize	-11.7971
▁markSupported	-11.7971
▁toASCIIString	-11.7982
▁ModelMBean	-11.7993
▁And	-11.8014
▁Status	-11.8014
▁applyPattern	-11.8014
▁isLowerCase	-11.8014
▁getNumBands	-11.8025
▁MouseWheelEvent	-11.8047
▁getInputMap	-11.8047
▁VariableHeight	-11.8058
▁getHandler	-11.8058
▁getViewCount	-11.8058
▁getConstraints	-11.8069
▁setLineWrap	-11.8069
▁Defaults	-11.809
▁ParameterBlock	-11.8112
▁setDouble	-11.8112
▁doClick	-11.8123
▁unread	-11.8134
▁Changed	-11.8145
▁Scrollbar	-11.8167
▁or	-11.8178
▁selectAll	-11.8189
▁ArrayType	-11.82
▁setRows	-11.8222
▁setValueAt	-11.8222
▁Concrete	-11.8233
▁nextSetBit	-11.8233
▁parser	-11.8233
▁appendChild	-11.8244
▁XMLDecoder	-11.8255
▁Read	-11.8266
▁PrivateKey	-11.8288
▁lastKey	-11.8288
▁getEnclosing	-11.8322
▁dispatchEvent	-11.8333
▁Annotated	-11.8344
▁shiftLeft	-11.8355
▁isCancelled	-11.8366
▁isShiftDown	-11.8377
▁setR	-11.8377
▁FormatException	-11.8389
▁Binding	-11.84
▁Bundle	-11.8411
▁DataBufferByte	-11.8411
▁getPreferredSpan	-11.8411
▁prepareCall	-11.8411
▁Select	-11.8422
▁getNode	-11.8422
▁isEditable	-11.8422
▁modelToView	-11.8422
▁handle	-11.8445
▁fireTableRows	-11.8456
▁MimeType	-11.8467
▁QueryExp	-11.8467
▁CRLSelector	-11.8479
▁I	-11.8501
▁HostnameVerifier	-11.8513
▁getParams	-11.8524
▁Cache	-11.8535
▁H	-11.8547
▁Of	-11.8547
▁fillOval	-11.857
▁IndexedProperty	-11.8581
▁FormView	-11.8604
▁getDataBuffer	-11.8604
▁previousIndex	-11.8604
▁Identity	-11.8615
▁getBorderInsets	-11.8627
▁getLocal	-11.8627
▁getPeer	-11.8627
▁Prefix	-11.865
▁setBytes	-11.865
▁getRef	-11.8661
▁initCause	-11.8661
▁setElementAt	-11.8673
▁Transform	-11.8684
▁getAnnotations	-11.8684
▁in	-11.8684
▁Malformed	-11.8708
▁Update	-11.8708
▁getMonth	-11.8708
▁getTableHeader	-11.8708
▁Multicaster	-11.8731
▁AtFixedRate	-11.8742
▁Content	-11.8742
▁TypeElement	-11.8754
▁KeyboardActions	-11.8777
▁Readable	-11.8789
▁al	-11.8812
▁getLogManager	-11.8812
▁setFocusPainted	-11.8824
▁setM	-11.8824
▁appendTail	-11.8836
▁isExpanded	-11.8847
▁setS	-11.8859
▁Datatype	-11.8871
▁fromString	-11.8906
▁isOpaque	-11.8918
▁getSocketFactory	-11.893
▁Private	-11.8942
▁AccessibleHTML	-11.8954
▁getXMLReader	-11.8954
▁setCellRenderer	-11.8954
▁SchemaFactory	-11.8965
▁make	-11.8965
▁CharacterStream	-11.8977
▁NameCallback	-11.8977
▁copyInto	-11.8989
▁getLookAndFeel	-11.8989
▁CharArrayReader	-11.9001
▁scalb	-11.9037
▁CRL	-11.9061
▁addRow	-11.9061
▁contentEquals	-11.9061
▁getDescription	-11.9061
▁Remote	-11.9073
▁ToolTipManager	-11.9073
▁Utils	-11.9073
▁Sync	-11.9097
▁LineBorder	-11.9109
▁pr	-11.9121
▁TitlePane	-11.9133
▁getListener	-11.9145
▁getPainter	-11.9145
▁ingEnvironment	-11.9145
▁isLeaf	-11.9145
▁RepaintManager	-11.9157
▁comparator	-11.9169
▁Renderer	-11.9182
▁setConnect	-11.9182
▁IconFactory	-11.9194
▁lr	-11.9194
▁setParent	-11.9194
▁setState	-11.9194
▁Track	-11.9206
▁DisplayMode	-11.9218
▁PoolMXBean	-11.9218
▁By	-11.9242
▁LazyInputMap	-11.9242
▁MidiDevice	-11.9242
▁isEvent	-11.9242
▁RootElement	-11.9255
▁hasNextLine	-11.9255
▁Profile	-11.9267
▁SSLServerSocket	-11.9267
▁getPrimary	-11.9267
▁setComponent	-11.9279
▁Standard	-11.9291
▁getGenericType	-11.9304
▁getInteger	-11.9328
▁EllipticCurve	-11.9341
▁FileHandler	-11.9341
▁Peer	-11.9341
▁MenuElement	-11.9365
▁InputStreamImpl	-11.9378
▁SocketImpl	-11.939
▁o	-11.939
▁LocalAddress	-11.9402
▁BaseRowSet	-11.9427
▁JarEntry	-11.9427
▁getClipBounds	-11.9427
▁HTMLWriter	-11.944
▁ensureCapacity	-11.9452
▁Highlighter	-11.9477
▁ReadOnly	-11.9477
▁getLine	-11.9477
▁DTD	-11.949
▁FocusEnabled	-11.949
▁Min	-11.9502
▁compact	-11.9502
▁sync	-11.9502
▁Duration	-11.9527
▁ResourceAsStream	-11.9527
▁Generic	-11.954
▁getModifiersEx	-11.954
▁Processors	-11.9565
▁defineClass	-11.959
▁getDataElements	-11.959
▁getThrown	-11.9603
▁registerMBean	-11.9603
▁XML	-11.9616
▁isAbstract	-11.9616
▁removeElement	-11.9616
▁Ref	-11.9628
▁installUI	-11.9628
▁Channels	-11.9641
▁flowException	-11.9641
▁Jar	-11.9654
▁TypeSpecifier	-11.9654
▁getCellEditor	-11.9654
▁getSession	-11.9654
▁pattern	-11.9654
▁publish	-11.9654
▁CompositeType	-11.9666
▁DSAParams	-11.9666
▁InputMethod	-11.9679
▁getBigDecimal	-11.9679
▁isFinal	-11.9692
▁removeAllItems	-11.9705
▁setSource	-11.9705
▁getException	-11.973
▁ProgressBarUI	-11.9743
▁getFields	-11.9743
▁Converter	-11.9769
▁NotificationInfo	-11.9769
▁getDataType	-11.9769
▁TargetException	-11.9782
▁headMap	-11.9782
▁setN	-11.9782
▁FlowView	-11.9795
▁convertPoint	-11.9795
▁IntegerDigits	-11.9808
▁SelectionEnabled	-11.982
▁getScale	-11.982
▁Height	-11.9833
▁generateKeyPair	-11.9833
▁nextTag	-11.9846
▁Diagnostic	-11.9859
▁FocusEvent	-11.9872
▁IIOParam	-11.9885
▁addMouse	-11.9885
▁EncodedKeySpec	-11.9898
▁compute	-11.9898
▁getPathIterator	-11.9898
▁tailMap	-11.9898
▁getLead	-11.9911
▁getManifest	-11.9924
▁Flags	-11.9938
▁Server	-11.9938
▁StyledEditorKit	-11.9951
▁noneOf	-11.9951
▁BranchElement	-11.9964
▁Dispatch	-11.9964
▁BufferException	-11.9977
▁Description	-11.9977
▁getProtection	-11.9977
▁AccessibleState	-11.999
▁setContent	-11.999
▁setReadTimeout	-11.999
▁0(	-12.0003
▁getThreadGroup	-12.003
▁AreaFilled	-12.0043
▁ComboBoxEditor	-12.0043
▁NoSuchMethod	-12.0043
▁setBoolean	-12.0043
▁getColumns	-12.0056
▁getG	-12.0069
▁logp	-12.0069
▁unwrap	-12.0083
▁FocusAdapter	-12.0096
▁able	-12.0096
▁insertElementAt	-12.0096
▁isArmed	-12.0109
▁ColumnModel	-12.0136
▁Authentication	-12.0149
▁AttachmentPart	-12.0163
▁addHandler	-12.0163
▁toNanos	-12.0176
▁Int	-12.0203
▁getFD	-12.0216
▁ParagraphView	-12.023
▁getAudio	-12.023
▁getNumber	-12.0257
▁GapContent	-12.027
▁getChar	-12.027
▁getSubject	-12.0284
▁Isolation	-12.0297
▁Painter	-12.0297
▁asin	-12.0297
▁resolveClass	-12.0297
▁ulp	-12.0325
▁re	-12.0338
▁Popup	-12.0393
▁and	-12.0393
▁getLocale	-12.0393
▁getTransferData	-12.0393
▁SkipListSet	-12.0407
▁clearProperty	-12.0407
▁unregisterMBean	-12.042
▁AccessibleJTable	-12.0434
▁getDescent	-12.0434
▁setColumn	-12.0448
▁Item	-12.0475
▁asType	-12.0475
▁maxMemory	-12.0475
▁JToggleButton	-12.0503
▁ReturnType	-12.0503
▁Utilities	-12.0503
▁subMap	-12.0517
▁addNotify	-12.0545
▁FormatImpl	-12.0559
▁DataBufferInt	-12.0572
▁PlainView	-12.0572
▁setJMenuBar	-12.0572
▁Credential	-12.06
▁eval	-12.06
▁getStatus	-12.06
▁SOAPFault	-12.0614
▁CompoundBorder	-12.0642
▁DayOfWeek	-12.0642
▁InBits	-12.0642
▁IvParameterSpec	-12.0642
▁bitCount	-12.0642
▁getM	-12.0642
▁PrintRequest	-12.0657
▁ViewFactory	-12.0671
▁getPreferred	-12.0671
▁LeadingZeros	-12.0685
▁getGeneratedKeys	-12.0685
▁Closed	-12.0699
▁ID	-12.0699
▁Specs	-12.0699
▁hasFocus	-12.0727
▁TrailingZeros	-12.0755
▁getHours	-12.0755
▁BasicTableUI	-12.077
▁getContentLength	-12.077
▁notifyObservers	-12.077
▁setOrientation	-12.077
▁Patch	-12.0784
▁writeTo	-12.0784
▁ActivationGroup	-12.0812
▁ObservedObject	-12.0812
▁getPixel	-12.0812
▁isLeft	-12.0812
▁wordChars	-12.0812
▁FileLock	-12.0827
▁VolatileImage	-12.0827
▁b	-12.0827
▁cardinality	-12.0827
▁getArray	-12.0827
▁getToolTipText	-12.0827
▁ightComponent	-12.0841
▁fillPolygon	-12.0855
▁AbstractElement	-12.087
▁FormatterFactory	-12.087
▁XMLStream	-12.087
▁DropLocation	-12.0884
▁KerberosTicket	-12.0884
▁normalize	-12.0884
▁MediaTracker	-12.0899
▁ProgressMonitor	-12.0899
▁isLoopback	-12.0899
▁Cell	-12.0913
▁Domain	-12.0942
▁fillInStackTrace	-12.0971
▁getTree	-12.0971
▁Decimal	-12.0985
▁8	-12.1
▁getAction	-12.1014
▁getFileChooser	-12.1044
▁Holder	-12.1058
▁ComponentView	-12.1073
▁Endpoint	-12.1073
▁isHidden	-12.1088
▁SaslClient	-12.1102
▁RemoteObject	-12.1132
▁Removed	-12.1147
▁calculate	-12.1147
▁getConstructors	-12.1147
▁layout	-12.1147
▁dumpStack	-12.1161
▁ServiceInfoImpl	-12.1176
▁getSelectedText	-12.1176
▁ProtectionDomain	-12.1191
▁getCaret	-12.1191
▁scrollRect	-12.1191
▁SelectionPath	-12.1206
▁Op	-12.1221
▁CertificateEntry	-12.1236
▁LockSupport	-12.125
▁tailSet	-12.125
▁CycleMethod	-12.1265
▁f	-12.128
▁BufferStrategy	-12.1295
▁SearchResult	-12.1295
▁getWhen	-12.131
▁Version	-12.1325
▁ableByteChannel	-12.1325
▁isShutdown	-12.1355
▁15	-12.1371
▁MethodName	-12.1371
▁Region	-12.1371
▁SaslServer	-12.1371
▁ecutableElement	-12.1386
▁map	-12.1386
▁ImageConsumer	-12.1401
▁JavaParser	-12.1401
▁TokenManager	-12.1401
▁getParameters	-12.1416
▁getToolkit	-12.1416
▁0()</t>	-12.1431
▁Driver	-12.1431
▁addCSSAttribute	-12.1431
▁getSampleRate	-12.1431
▁holdsLock	-12.1431
▁provider	-12.1431
▁Paper	-12.1446
▁getChannels	-12.1446
▁Adler	-12.1462
▁RowCount	-12.1462
▁channel	-12.1477
▁My	-12.1492
▁getTimeInstance	-12.1507
▁isPrivate	-12.1523
▁getComponentAt	-12.1538
▁ImagePainter	-12.1554
▁SQL	-12.1554
▁activeCount	-12.1554
▁getFileName	-12.1554
▁MaskFormatter	-12.1569
▁getCenterY	-12.1569
▁BasicMenuItemUI	-12.1584
▁getUserInfo	-12.1584
▁TabularData	-12.1615
▁engine	-12.1615
▁getInetAddresses	-12.1615
▁installDefaults	-12.1615
▁setMessage	-12.1615
▁addColumn	-12.1631
▁shuffle	-12.1631
▁SOAPEnvelope	-12.1646
▁getStringBounds	-12.1662
▁Interruptibly	-12.1677
▁getResponse	-12.1693
▁getTranslate	-12.1693
▁tryAcquire	-12.1693
▁BlockData	-12.174
▁Checked	-12.1756
▁With	-12.1756
▁getCenterX	-12.1756
▁DHParameterSpec	-12.1771
▁MenuBar	-12.1771
▁getFrameSize	-12.1771
▁DesktopManager	-12.1787
▁SubList	-12.1787
▁XAException	-12.1787
▁BasicComboPopup	-12.1803
▁CompoundEdit	-12.1803
▁Persistence	-12.1803
▁createComp	-12.1803
▁drawOval	-12.1803
▁getActualMaximum	-12.1803
▁setLenient	-12.1834
▁RemoteException	-12.185
▁queryNames	-12.1866
▁JmDNSImpl	-12.1882
▁Schema	-12.1882
▁getDefaultCursor	-12.1882
▁getRowHeight	-12.1882
▁getSelectionPath	-12.1882
▁Characters	-12.1898
▁setRowSelection	-12.1898
▁setDialogTitle	-12.193
▁setSelectedFile	-12.193
▁generateSecret	-12.1946
▁newXMLGr	-12.1946
▁getLocalAddress	-12.1962
▁TreeUI	-12.1978
▁getIn	-12.1978
▁setModal	-12.1978
▁sign	-12.1978
▁Crypto	-12.1994
▁getAutoCommit	-12.1994
▁inflate	-12.1994
▁setReadOnly	-12.1994
▁signalAll	-12.1994
▁y	-12.1994
▁Broadcaster	-12.201
▁LinkedDeque	-12.201
▁SetDescriptor	-12.201
▁lastElement	-12.201
▁beep	-12.2026
▁getDefaultType	-12.2026
▁getWarnings	-12.2026
▁setLine	-12.2026
▁setWrapStyleWord	-12.2026
▁Children	-12.2042
▁getFragment	-12.2058
▁getH	-12.2058
▁Retained	-12.2075
▁Intern	-12.2091
▁SignificantBits	-12.2091
▁deflate	-12.2091
▁headSet	-12.2091
▁i	-12.2091
▁oundBorder	-12.2091
▁Unknown	-12.2107
▁internalGet	-12.2107
▁SpreadGeneric	-12.2123
▁Not	-12.214
▁setRect	-12.214
▁x	-12.214
▁IllegalAccess	-12.2156
▁ionService	-12.2156
▁reverseOrder	-12.2156
▁getByte	-12.2172
▁JWindow	-12.2189
▁Valid	-12.2189
▁XMLEventFactory	-12.2189
▁getCanonical	-12.2189
▁isBound	-12.2189
▁isConsumed	-12.2189
▁getSubjectX	-12.2205
▁on	-12.2205
▁createSubcontext	-12.2221
▁getCellRect	-12.2238
▁getCertificates	-12.2238
▁setFocus	-12.2238
▁Get	-12.2254
▁Kind	-12.2288
▁Sub	-12.2288
▁ToModel	-12.2288
▁isPressed	-12.2288
▁createMessage	-12.2304
▁en	-12.2321
▁finished	-12.2321
▁getPathForRow	-12.2321
▁showSaveDialog	-12.2321
▁Decorated	-12.2337
▁setSearchScope	-12.2337
▁RawIntBits	-12.2354
▁floatTo	-12.2354
▁r	-12.2354
▁Adjustable	-12.2371
▁DOMResult	-12.2387
▁getSubjectDN	-12.2387
▁nextShort	-12.2404
▁doubleTo	-12.2421
▁return	-12.2421
▁generatePublic	-12.2438
▁ColorSpaceType	-12.2454
▁NotFound	-12.2454
▁clearParameters	-12.2454
▁Namespace	-12.2471
▁getDatabase	-12.2488
▁getProviders	-12.2488
▁Divider	-12.2505
▁ElementInfo	-12.2505
▁Insert	-12.2505
▁TreeStateNode	-12.2505
▁rint	-12.2505
▁attachment	-12.2522
▁addSelection	-12.2539
▁sChanged	-12.2539
▁FormatToken	-12.2556
▁OpenType	-12.2556
▁Protocols	-12.2556
▁Range	-12.2556
▁TransformedShape	-12.2556
▁signal	-12.2556
▁getJarEntry	-12.2573
▁getTab	-12.2573
▁pollFirst	-12.2573
▁exiting	-12.259
▁getOwner	-12.259
▁targetA	-12.259
▁undo	-12.259
▁DefaultB	-12.2624
▁Unresolved	-12.2624
▁BundleName	-12.2641
▁PipedReader	-12.2641
▁entering	-12.2641
▁getPrecision	-12.2641
▁getElementIndex	-12.2659
▁isDataFlavor	-12.2659
▁paramString	-12.2659
▁getOffsets	-12.2676
▁setFileFilter	-12.2693
▁OutputStreamImpl	-12.271
▁Tab	-12.271
▁doLayout	-12.271
▁setProperties	-12.271
▁setShort	-12.271
▁shiftRight	-12.271
▁ScrollPaneUI	-12.2728
▁VisualPosition	-12.2728
▁getRowForPath	-12.2728
▁sum	-12.2728
▁Char	-12.2745
▁ECPoint	-12.2745
▁defaultManager	-12.2745
▁Registry	-12.2762
▁RequestProperty	-12.278
▁newDecoder	-12.278
▁nextBigInteger	-12.2797
▁getSystemId	-12.2814
▁toFront	-12.2814
▁LdapContext	-12.2832
▁setRe	-12.2832
▁MidiEvent	-12.2849
▁getRe	-12.2849
▁isSupported	-12.2849
▁useDelimiter	-12.2849
▁CodePoints	-12.2867
▁SocketOptions	-12.2867
▁getUpdateCount	-12.2867
▁FormatSpecifier	-12.2884
▁PBEKeySpec	-12.2884
▁getChange	-12.2884
▁getIterator	-12.2884
▁getMinutes	-12.2884
▁h	-12.2884
▁PipedWriter	-12.2902
▁Round	-12.2902
▁StartDocument	-12.2902
▁offsetBy	-12.292
▁SpecificPart	-12.2937
▁copy	-12.2937
▁1(	-12.2955
▁6	-12.2955
▁brighter	-12.2955
▁getCellRenderer	-12.2955
▁getTables	-12.2955
▁setIndeterminate	-12.2955
▁ImageProducer	-12.2973
▁RSAPrivateCrt	-12.2973
▁getCodeSource	-12.2973
▁Comments	-12.299
▁getRemote	-12.3008
▁Interface	-12.3026
▁SOAPFactory	-12.3026
▁engineGet	-12.3026
▁getBinaryStream	-12.3026
▁installListeners	-12.3026
▁modPow	-12.3026
▁RC	-12.3044
▁getContainer	-12.3044
▁Order	-12.3062
▁RuntimeMXBean	-12.3062
▁ScreenDevice	-12.3062
▁etworkInterfaces	-12.3062
▁BasicButtonUI	-12.308
▁Input	-12.308
▁setFloatable	-12.308
▁MapMode	-12.3098
▁SizeRequirements	-12.3098
▁Canvas	-12.3116
▁Highlight	-12.3116
▁checkAccess	-12.3116
▁ix	-12.3116
▁Option	-12.3134
▁XMLEventWriter	-12.3134
▁getRawOffset	-12.3134
▁trimToSize	-12.3134
▁CertPathBuilder	-12.3152
▁Check	-12.3152
▁Windows	-12.3152
▁HostName	-12.317
▁currentSegment	-12.317
▁enumerate	-12.317
▁hide	-12.317
▁LoginException	-12.3188
▁All	-12.3206
▁error	-12.3206
▁Objects	-12.3224
▁setIgnoring	-12.3242
▁AllPermission	-12.326
▁FixedHeight	-12.326
▁TransferSupport	-12.326
▁As	-12.3279
▁GraphicsUtils	-12.3279
▁JApplet	-12.3279
▁WildcardType	-12.3279
▁replaceUI	-12.3279
▁getEnumConstants	-12.3297
▁ServerMBean	-12.3315
▁TrayIcon	-12.3315
▁AWTEventListener	-12.3334
▁Credentials	-12.3334
▁isSelectedIndex	-12.3334
▁filter	-12.3352
▁getVisibleRect	-12.3352
▁setTcpNoDelay	-12.3352
▁Role	-12.3371
▁SampleModelTest	-12.3371
▁Superclass	-12.3371
▁Certificates	-12.3389
▁401.	-12.3408
▁ate	-12.3408
▁isSelectionEmpty	-12.3408
▁setReuseAddress	-12.3408
▁t	-12.3408
▁ChildrenCount	-12.3445
▁ationalFormatter	-12.3445
▁setBinaryStream	-12.3445
▁CipherSpi	-12.3463
▁a	-12.3463
▁readChar	-12.3463
▁getCurrency	-12.3482
▁getUsed	-12.3482
▁locationToIndex	-12.3482
▁setLabel	-12.3482
▁showDialog	-12.3482
▁testBit	-12.3482
▁ChannelException	-12.3501
▁fireInterval	-12.3501
▁onMalformedInput	-12.3501
▁Form	-12.3519
▁setFloat	-12.3519
▁createDialog	-12.3538
▁engineInit	-12.3538
▁RawLongBits	-12.3557
▁getVariant	-12.3557
▁toPattern	-12.3557
▁ajorTickSpacing	-12.3576
▁getBlob	-12.3576
▁Lexer	-12.3594
▁getHandshake	-12.3594
▁getWrapped	-12.3594
▁Link	-12.3613
▁imalHTMLWriter	-12.3613
▁setDisplay	-12.3613
▁v	-12.3632
▁SaslException	-12.3651
▁Parsed	-12.367
▁AsyncBoxView	-12.3689
▁ImageView	-12.3708
▁IsVisible	-12.3708
▁getLastModified	-12.3708
▁processImage	-12.3708
▁emptionMechanism	-12.3727
▁getMBeanServer	-12.3727
▁initVerify	-12.3727
▁ProxySelector	-12.3747
▁command	-12.3766
▁getEnabled	-12.3766
▁getSupported	-12.3785
▁isRunning	-12.3804
▁marshal	-12.3823
▁onUnmappable	-12.3823
▁isProtected	-12.3843
▁ColumnIndex	-12.3862
▁getPopupMenu	-12.3862
▁methodType	-12.3862
▁TraversalKeys	-12.3882
▁fireContent	-12.3882
▁TableHeaderUI	-12.3901
▁getHandlers	-12.3901
▁selectedKeys	-12.3901
▁StringRefAddr	-12.392
▁getAvailable	-12.392
▁SSLSocketFactory	-12.394
▁ToolProvider	-12.394
▁ScriptContext	-12.396
▁SystemView	-12.396
▁TextColor	-12.396
▁IIOImage	-12.3979
▁charWidth	-12.3979
▁value	-12.3979
▁getCellBounds	-12.3999
▁propertyChange	-12.3999
▁rowAtPoint	-12.3999
▁EntitiesHandler	-12.4018
▁toChars	-12.4018
▁Declaration	-12.4038
▁KeyStoreSpi	-12.4058
▁getTransfer	-12.4058
▁isAltDown	-12.4078
▁Visible	-12.4097
▁Y	-12.4097
▁Sort	-12.4117
▁MimeHeaders	-12.4137
▁ValidationEvent	-12.4137
▁getMouse	-12.4137
▁PixelGrabber	-12.4157
▁isHighSurrogate	-12.4157
▁LabelView	-12.4177
▁runFinalization	-12.4177
▁setSelectionPath	-12.4177
▁ObjectException	-12.4197
▁ServicesSupport	-12.4197
▁putDouble	-12.4197
▁getClip	-12.4217
▁getTopLevel	-12.4217
▁Chain	-12.4257
▁UShort	-12.4257
▁charCount	-12.4257
▁distance	-12.4257
▁DarkShadow	-12.4298
▁Added	-12.4318
▁allOf	-12.4318
▁removeNode	-12.4318
▁setIn	-12.4318
▁Constructors	-12.4338
▁CachedRowSet	-12.4359
▁Media	-12.4359
▁k	-12.4359
▁SNode	-12.4379
▁delay	-12.4379
▁initSign	-12.4379
▁Console	-12.44
▁Desc	-12.44
▁ECFieldF	-12.44
▁build	-12.44
▁generatePrivate	-12.44
▁getService	-12.44
▁isHeadless	-12.442
▁Hierarchy	-12.4441
▁PrivateKeyEntry	-12.4441
▁Rect	-12.4441
▁ensureIndex	-12.4441
▁generateKey	-12.4441
▁Response	-12.4461
▁unbind	-12.4461
▁Encrypted	-12.4482
▁NamingManager	-12.4482
▁PrivateKeyInfo	-12.4482
▁ceiveBufferSize	-12.4482
▁getDot	-12.4482
▁getWheelRotation	-12.4482
▁Headless	-12.4502
▁LocateRegistry	-12.4502
▁Requirements	-12.4502
▁setFeature	-12.4523
▁setLeftComponent	-12.4523
▁Capacity	-12.4544
▁Joinable	-12.4544
▁asIntBuffer	-12.4544
▁ppConfiguration	-12.4544
▁setFrame	-12.4544
▁wakeup	-12.4544
▁Helper	-12.4565
▁MethodError	-12.4565
▁concatenate	-12.4565
▁newEncoder	-12.4565
▁AttributeView	-12.4585
▁ComponentType	-12.4585
▁Operations	-12.4585
▁Invocation	-12.4606
▁RuntimeException	-12.4606
▁hasText	-12.4627
▁removeNotify	-12.4627
▁Collation	-12.4648
▁PlainSocketImpl	-12.4648
▁TreeSelection	-12.4648
▁getFormatter	-12.4648
▁getTransferable	-12.4648
▁getCatalog	-12.4669
▁getMBeanInfo	-12.4669
▁TextInput	-12.469
▁getActions	-12.469
▁getIndexed	-12.469
▁toBinaryString	-12.469
▁getUnscaledValue	-12.4711
▁ObjectInstance	-12.4732
▁eedClientAuth	-12.4732
▁quoteReplacement	-12.4732
▁setRowHeight	-12.4732
▁Authorize	-12.4753
▁RSAKey	-12.4753
▁TestList	-12.4753
▁adjust	-12.4753
▁redirectError	-12.4753
▁Extension	-12.4775
▁ResolveResult	-12.4775
▁SSLParameters	-12.4775
▁setShow	-12.4775
▁subSet	-12.4775
▁ListDataListener	-12.4796
▁Uninterruptibly	-12.4796
▁getClob	-12.4796
▁getGlassPane	-12.4796
▁getItemAt	-12.4796
▁move	-12.4796
▁showOptionDialog	-12.4796
▁uninstallUI	-12.4796
▁BasicPermission	-12.4817
▁getEndIndex	-12.4817
▁getSelectedRows	-12.4817
▁setDataElements	-12.4817
▁StructureChanged	-12.4839
▁createUI	-12.4839
▁4	-12.486
▁ImageReadParam	-12.486
▁Scrollable	-12.486
▁CounterMonitor	-12.4881
▁getComposite	-12.4881
▁setOption	-12.4881
▁PrincipalTest	-12.4903
▁Stride	-12.4903
▁isDisplayable	-12.4903
▁isRollover	-12.4903
▁ConstPool	-12.4924
▁EventHandler	-12.4924
▁Linear	-12.4924
▁StringSelection	-12.4924
▁URLException	-12.4924
▁getKeys	-12.4924
▁getLoggerName	-12.4924
▁mouseMove	-12.4924
▁ConstructorInfo	-12.4946
▁Id	-12.4946
▁Unmodifiable	-12.4946
▁isReadable	-12.4946
▁n	-12.4946
▁ar	-12.4968
▁getNumComponents	-12.4968
▁ChoiceFormat	-12.4989
▁End	-12.4989
▁getColumnLabel	-12.4989
▁getSuffix	-12.4989
▁setUseClientMode	-12.4989
▁Block	-12.5011
▁Internal	-12.5011
▁Layer	-12.5011
▁MemoryMXBean	-12.5011
▁MetaMessage	-12.5011
▁getA	-12.5011
▁isDefined	-12.5011
▁paintBorder	-12.5011
▁u	-12.5011
▁RuleBased	-12.5033
▁Inserted	-12.5055
▁Parent	-12.5076
▁getSOAPPart	-12.5076
▁Bound	-12.5098
▁directory	-12.5098
▁getScanline	-12.5098
▁mplementation	-12.5098
▁Identifiers	-12.512
▁asSubclass	-12.512
▁can	-12.512
▁isTerminated	-12.512
▁login	-12.512
▁putFloat	-12.512
▁setTransaction	-12.512
▁viewToModel	-12.512
▁Exponent	-12.5142
▁g	-12.5142
▁BufferOver	-12.5164
▁Editor	-12.5164
▁ElementChange	-12.5164
▁asFloatBuffer	-12.5186
▁handleAttribute	-12.5186
▁absolute	-12.5209
▁unscaledValue	-12.5231
▁aliases	-12.5275
▁NumericShaper	-12.5298
▁StringContent	-12.5298
▁advance	-12.5298
▁edMnemonicIndex	-12.5298
▁Geometry	-12.5343
▁checkClosed	-12.5365
▁DSAKey	-12.5388
▁ECParameterSpec	-12.5388
▁Page	-12.5388
▁fillRoundRect	-12.5388
▁ECFieldFp	-12.541
▁MidiChannel	-12.541
▁Or	-12.541
▁redo	-12.541
▁ChildSupport	-12.5455
▁InvalidName	-12.5455
▁at	-12.5455
▁getQualifiedName	-12.5455
▁getQueue	-12.5455
▁getScaleInstance	-12.5455
▁isBlocking	-12.5455
▁AbstractBorder	-12.5478
▁AccessibleJList	-12.5478
▁as	-12.5478
▁getFieldValue	-12.5478
▁getMoreResults	-12.5478
▁NoSuchAlgorithm	-12.5501
▁SyntaxException	-12.5501
▁nextEvent	-12.5501
▁setContents	-12.5501
▁toBigInteger	-12.5501
▁isRight	-12.5524
▁ultiplied	-12.5524
▁Base	-12.5547
▁ColorChooser	-12.5547
▁region	-12.5547
▁setFetchSize	-12.5547
▁DataFlavors	-12.557
▁isAlphaPrem	-12.557
▁isCellSelected	-12.557
▁setDocument	-12.557
▁ClipboardOwner	-12.5593
▁PopupMenuUI	-12.5593
▁getNum	-12.5593
▁getSerialNumber	-12.5593
▁dInstance	-12.5616
▁getOption	-12.5616
▁setParameter	-12.5616
▁getLevelAt	-12.5639
▁getModulus	-12.5639
▁getSelectionEnd	-12.5639
▁isWritable	-12.5639
▁Pipe	-12.5662
▁Task	-12.5662
▁DecimalSeparator	-12.5685
▁getAndAdd	-12.5685
▁getDescriptor	-12.5685
▁getStyleSheet	-12.5685
▁setMin	-12.5685
▁Code	-12.5709
▁id	-12.5709
▁BufferedImageOp	-12.5732
▁SOAPPart	-12.5732
▁ationException	-12.5732
▁getKeyManagers	-12.5732
▁isLowSurrogate	-12.5732
▁FactoryFinder	-12.5755
▁Strategy	-12.5755
▁isFocusOwner	-12.5755
▁RMI	-12.5779
▁Bytes	-12.5802
▁createName	-12.5802
▁force	-12.5802
▁getImpl	-12.5802
▁getTag	-12.5802
▁imumLayoutSize	-12.5802
▁MenuDrag	-12.5826
▁getBaseline	-12.5826
▁getImageable	-12.5826
▁setAlignmentY	-12.5826
▁stopCellEditing	-12.5826
▁DragGesture	-12.585
▁Native	-12.585
▁inDaylightTime	-12.585
▁union	-12.585
▁Deleted	-12.5873
▁ListenerProxy	-12.5873
▁getScaleX	-12.5873
▁Phaser	-12.5897
▁lineno	-12.5897
▁G	-12.5921
▁Synchronized	-12.5921
▁ecutionException	-12.5921
▁expandPath	-12.5921
▁ExecutorComplet	-12.5945
▁DataBufferFloat	-12.5968
▁Query	-12.5968
▁getElem	-12.5968
▁getPolicy	-12.5968
▁BasicBorders	-12.5992
▁Observer	-12.5992
▁getAlignment	-12.5992
▁getF	-12.5992
▁setWidth	-12.5992
▁st	-12.5992
▁Preference	-12.6016
▁newChannel	-12.6016
▁orTickSpacing	-12.6016
▁MidiSystem	-12.604
▁addNotification	-12.604
▁ensureOpen	-12.604
▁it	-12.604
▁setAlwaysOnTop	-12.604
▁Bindings	-12.6065
▁ByName	-12.6065
▁Keymap	-12.6065
▁engineGenerate	-12.6065
▁SelectionAllowed	-12.6089
▁TextLine	-12.6089
▁TextUI	-12.6089
▁hasAlpha	-12.6089
▁removeMouse	-12.6089
▁setDefaultButton	-12.6089
▁setGroupingUsed	-12.6089
▁ECField	-12.6113
▁PrivateKeySpec	-12.6113
▁SourceLocator	-12.6113
▁getDirectory	-12.6113
▁BlockView	-12.6137
▁KeyboardAction	-12.6137
▁getSymbol	-12.6137
▁asStartElement	-12.6162
▁children	-12.6162
▁getVersion	-12.6162
▁LineBreak	-12.6186
▁Measurer	-12.6186
▁preferred	-12.6186
▁DSA	-12.6211
▁Delegating	-12.6211
▁Language	-12.6211
▁PKCS	-12.6235
▁getIssuerX	-12.6235
▁getKeyProperty	-12.6235
▁FilterBypass	-12.626
▁LineMetrics	-12.626
▁isEqual	-12.626
▁ContainerEvent	-12.6284
▁No	-12.6284
▁clearRect	-12.6284
▁getL	-12.6284
▁AddingChild	-12.6309
▁DOMSource	-12.6309
▁QNode	-12.6309
▁assertChange	-12.6309
▁defaultAction	-12.6309
▁from	-12.6309
▁keyPress	-12.6309
▁pathBy	-12.6309
▁invokeAll	-12.6334
▁isHeld	-12.6334
▁setAuto	-12.6334
▁setReturning	-12.6334
▁On	-12.6359
▁TransferQueue	-12.6359
▁evaluate	-12.6359
▁getI	-12.6359
▁window	-12.6359
▁LayoutSize	-12.6384
▁PKIXCertPath	-12.6384
▁beforeFirst	-12.6384
▁asReadOnlyBuffer	-12.6409
▁putChar	-12.6409
▁setPassword	-12.6434
▁updateComponent	-12.6434
▁RootPane	-12.6459
▁createDefault	-12.6459
▁getParagraph	-12.6484
▁UTFData	-12.6509
▁addChildElement	-12.6509
▁est	-12.6509
▁FileAttributes	-12.6534
▁Next	-12.6534
▁WheelListener	-12.6534
▁appendCodePoint	-12.6534
▁Pane	-12.656
▁PrintJob	-12.656
▁RMIConnector	-12.656
▁hypot	-12.656
▁reverseBytes	-12.656
▁setPaintTicks	-12.656
▁StandardMBean	-12.6585
▁getViewIndex	-12.6585
▁ModelMBeanInfo	-12.6611
▁_0(	-12.6611
▁getBeginIndex	-12.6611
▁getTarget	-12.6611
▁Dispatcher	-12.6636
▁O	-12.6636
▁PoolSize	-12.6636
▁drawRoundRect	-12.6636
▁getMillis	-12.6636
▁getTrustManagers	-12.6636
▁getVisible	-12.6636
▁setExecutable	-12.6636
▁writeChar	-12.6636
▁getDomain	-12.6662
▁getSignature	-12.6662
▁loadLibrary	-12.6662
▁rappedPlainView	-12.6662
▁setListData	-12.6662
▁Clone	-12.6687
▁RMIConnection	-12.6687
▁RTest	-12.6687
▁createS	-12.6687
▁getURLs	-12.6687
▁sableFileFilter	-12.6687
▁setBit	-12.6687
▁Compiler	-12.6713
▁Fields	-12.6713
▁PopupFactory	-12.6713
▁drainTo	-12.6713
▁getInput	-12.6713
▁setCharacter	-12.6713
▁Mixer	-12.6739
▁DesktopPaneUI	-12.6765
▁addStyle	-12.6765
▁codePointCount	-12.6765
▁descendingSet	-12.6765
▁getStream	-12.6765
▁Doc	-12.6791
▁IllegalFormat	-12.6791
▁Kernel	-12.6791
▁Resolver	-12.6791
▁addPort	-12.6791
▁getStroke	-12.6791
▁removeAttribute	-12.6791
▁Mark	-12.6817
▁TypeVisitor	-12.6817
▁getTitleAt	-12.6817
▁setViewPosition	-12.6817
▁MenuShortcut	-12.6843
▁addTextNode	-12.6843
▁columnAtPoint	-12.6843
▁edMnemonic	-12.6843
▁setContentType	-12.6843
▁DSyntax	-12.6869
▁DateTime	-12.6869
▁SAPublicKeySpec	-12.6869
▁modifyAttributes	-12.6869
▁newSchema	-12.6895
▁config	-12.6922
▁descendingMap	-12.6922
▁setAlignment	-12.6922
▁Xml	-12.6948
▁addEdit	-12.6948
▁getLabel	-12.6948
▁getParentPath	-12.6948
▁FHTreeStateNode	-12.6974
▁Printer	-12.6974
▁getAnchor	-12.6974
▁2.	-12.7001
▁SimpleBeanInfo	-12.7001
▁getFocusOwner	-12.7001
▁getNextJarEntry	-12.7001
▁stateChanged	-12.7001
▁Clip	-12.7027
▁Serial	-12.7027
▁SystemTray	-12.7027
▁createM	-12.7027
▁getPriority	-12.7027
▁setUndecorated	-12.7027
▁visit	-12.7027
▁InvalidKeySpec	-12.7054
▁KerberosKey	-12.7054
▁isEditing	-12.7054
▁needsInput	-12.7054
▁Debug	-12.7081
▁MemberName	-12.7081
▁user	-12.7081
▁RSA	-12.7107
▁ServiceRegistry	-12.7107
▁begin	-12.7107
▁et	-12.7107
▁getElements	-12.7107
▁j	-12.7107
▁setMaxWidth	-12.7107
▁updateRow	-12.7107
▁updateStyle	-12.7107
▁5	-12.7134
▁Sasl	-12.7134
▁Sequencer	-12.7134
▁getColorSpace	-12.7134
▁getNumericValue	-12.7134
▁getW	-12.7134
▁ArrowButton	-12.7161
▁antClientAuth	-12.7161
▁drawPolygon	-12.7161
▁getStandard	-12.7161
▁getTransferType	-12.7161
▁ingByteChannel	-12.7161
▁nextByte	-12.7161
▁AudioFileFormat	-12.7188
▁ComponentPeer	-12.7188
▁changeSelection	-12.7188
▁pre	-12.7188
▁canEncode	-12.7215
▁getEvent	-12.7215
▁isSpaceChar	-12.7215
▁restart	-12.7215
▁userRoot	-12.7215
▁NodeForPackage	-12.7242
▁TexturePaint	-12.7242
▁endBufferSize	-12.7242
▁getE	-12.7242
▁getPercent	-12.7242
▁AudioInputStream	-12.727
▁setSample	-12.727
▁Client	-12.7297
▁DataBufferShort	-12.7297
▁Relation	-12.7297
▁addVetoable	-12.7297
▁getViewPosition	-12.7297
▁isC	-12.7297
▁loadImage	-12.7297
▁rebind	-12.7297
▁setKeyEntry	-12.7297
▁setPixels	-12.7297
▁Comp	-12.7324
▁lalr	-12.7324
▁AncestorListener	-12.7352
▁SortingFocus	-12.7352
▁engineUpdate	-12.7352
▁getTask	-12.7352
▁mousePress	-12.7352
▁eapMemoryUsage	-12.7379
▁ShortcutKeyMask	-12.7407
▁TableView	-12.7407
▁LeafElement	-12.7434
▁Locales	-12.7434
▁environment	-12.7434
▁setElem	-12.7434
▁DocumentFilter	-12.7462
▁Rad	-12.7462
▁emit	-12.7462
▁getPosition	-12.7462
▁getHighlight	-12.749
▁readFields	-12.749
▁getNanos	-12.7518
▁getScaleY	-12.7518
▁hasNextInt	-12.7518
▁production	-12.7518
▁rotateLeft	-12.7518
▁test	-12.7518
▁RTFGenerator	-12.7546
▁an	-12.7546
▁atteBorder	-12.7546
▁getKeySpec	-12.7546
▁getPixels	-12.7546
▁isAny	-12.7546
▁mouseRelease	-12.7546
▁synchronizedMap	-12.7546
▁DesktopIconUI	-12.7574
▁NavigableSubMap	-12.7574
▁NetworkInterface	-12.7574
▁Updated	-12.7574
▁getConstraint	-12.7574
▁getObjectName	-12.7574
▁ByCurrentThread	-12.7602
▁TagElement	-12.7602
▁getPathCount	-12.7602
▁isDispatchThread	-12.7602
▁CtClassType	-12.763
▁TableColumnModel	-12.763
▁assertSpec	-12.763
▁isTransient	-12.763
▁swap	-12.763
▁transferFrom	-12.763
▁Capabilities	-12.7659
▁startHandshake	-12.7659
▁>[])</t>	-12.7687
▁getTransparency	-12.7687
▁getURLOr	-12.7687
▁Output	-12.7715
▁getMinimumSpan	-12.7715
▁getTranslateX	-12.7715
▁getTranslateY	-12.7715
▁putFields	-12.7715
▁Command	-12.7744
▁getMenuComponent	-12.7744
▁transferTo	-12.7744
▁FontUIResource	-12.7773
▁Header	-12.7773
▁MetalBorders	-12.7773
▁address	-12.7773
▁putBoolean	-12.7773
▁setDot	-12.7773
▁toPlainString	-12.7773
▁DefaultEditor	-12.7801
▁FileTypeMap	-12.7801
▁GlyphPainter	-12.7801
▁IIOException	-12.7801
▁ServiceLoader	-12.7801
▁relativize	-12.7801
▁RGBtoHSB	-12.783
▁ResizeMode	-12.783
▁ScheduledFuture	-12.783
▁getDelay	-12.783
▁getLineWidth	-12.783
▁Current	-12.7859
▁Year	-12.7859
▁fireStateChanged	-12.7859
▁setBigDecimal	-12.7859
▁writeFields	-12.7859
▁GMatrix	-12.7917
▁MetalUtils	-12.7917
▁Secure	-12.7917
▁getRule	-12.7917
▁getThreadMXBean	-12.7917
▁BufferSize	-12.7946
▁FollowRedirects	-12.7946
▁SystemFlavorMap	-12.7946
▁After	-12.7975
▁addChoo	-12.7975
▁divideAnd	-12.7975
▁newCondition	-12.7975
▁synchronizedList	-12.7975
▁Is	-12.8004
▁SQLWarning	-12.8004
▁SignatureSpi	-12.8004
▁isActive	-12.8004
▁isIcon	-12.8004
▁isProxyClass	-12.8004
▁sharedInstance	-12.8004
▁Empty	-12.8034
▁LayoutComponent	-12.8063
▁ch	-12.8063
▁ialGradientPaint	-12.8063
▁prepare	-12.8063
▁CEndpoint	-12.8093
▁Protocol	-12.8093
▁RelationService	-12.8093
▁SpringTest	-12.8093
▁checked	-12.8093
▁getEnvelope	-12.8093
▁keyRelease	-12.8093
▁createDispatch	-12.8122
▁getIssuerDN	-12.8122
▁Activation	-12.8152
▁assertEquals	-12.8152
▁getSamples	-12.8152
▁getTabPlacement	-12.8152
▁ParentHandlers	-12.8182
▁Progress	-12.8182
▁WithFixedDelay	-12.8182
▁lookingAt	-12.8182
▁BufferUnder	-12.8212
▁DisplaySize	-12.8212
▁Request	-12.8212
▁getCursor	-12.8212
▁getInternalFrame	-12.8212
▁ingEnabled	-12.8212
▁scan	-12.8212
▁setAllow	-12.8212
▁Root	-12.8242
▁getEnvironment	-12.8242
▁getLayeredPane	-12.8242
▁getPoolSize	-12.8242
▁getSeconds	-12.8242
▁Processor	-12.8272
▁getMaximumSpan	-12.8272
▁getUn	-12.8272
▁removeRow	-12.8272
▁state	-12.8272
▁RadioButtonUI	-12.8302
▁isUnicode	-12.8302
▁sinh	-12.8302
▁AccessibleJTree	-12.8332
▁Delayed	-12.8332
▁ZipException	-12.8332
▁navigableKeySet	-12.8332
▁paintBackground	-12.8332
▁Re	-12.8363
▁SelectionColor	-12.8363
▁HostException	-12.8393
▁InNamespace	-12.8393
▁isComplete	-12.8393
▁AnnotationValue	-12.8424
▁codePointBefore	-12.8424
▁etchDirection	-12.8424
▁getPrivateKey	-12.8424
▁getQ	-12.8424
▁hash	-12.8424
▁setExtendedState	-12.8424
▁Job	-12.8454
▁Local	-12.8454
▁OfIntegerSyntax	-12.8454
▁Remainder	-12.8454
▁getDevice	-12.8454
▁getExtension	-12.8454
▁getHgap	-12.8454
▁setSelectedPath	-12.8454
▁truncate	-12.8454
▁BasicSpinnerUI	-12.8485
▁Sign	-12.8485
▁setInstance	-12.8485
▁CodeSigner	-12.8516
▁FactorySpi	-12.8516
▁SystemMXBean	-12.8516
▁TableCellEditor	-12.8516
▁URLStreamHandler	-12.8516
▁WriteMethod	-12.8516
▁getCollection	-12.8516
▁nextClearBit	-12.8516
▁Open	-12.8547
▁Variable	-12.8547
▁getB	-12.8547
▁getDesktopIcon	-12.8578
▁getParentElement	-12.8578
▁setConstraint	-12.8578
▁3(	-12.8609
▁Adjustment	-12.8609
▁FocusOwner	-12.8609
▁GapVector	-12.8609
▁LocalName	-12.8609
▁MouseInfo	-12.864
▁TransferStack	-12.864
▁action	-12.864
▁isD	-12.864
▁CodePoint	-12.8671
▁ation	-12.8671
▁change	-12.8671
▁checkError	-12.8671
▁component	-12.8671
▁remainder	-12.8671
▁Interfaces	-12.8703
▁ReadMethod	-12.8703
▁browse	-12.8703
▁count	-12.8703
▁getLeading	-12.8703
▁getSample	-12.8703
▁postEvent	-12.8703
▁setPaintLabels	-12.8703
▁th	-12.8703
▁updateInt	-12.8703
▁Allocation	-12.8734
▁FullScreenWindow	-12.8734
▁ReferenceBuilder	-12.8734
▁UserInteraction	-12.8734
▁getReader	-12.8734
▁getSOAPBody	-12.8734
▁hasNextShort	-12.8734
▁setAsText	-12.8734
▁ElementTest	-12.8766
▁getT	-12.8766
▁setEditor	-12.8766
▁setQueryTimeout	-12.8766
▁AtomicMarkable	-12.8798
▁Conversion	-12.8798
▁getAuth	-12.8798
▁getServer	-12.8798
▁linkSize	-12.8798
▁w	-12.8798
▁TestListener	-12.8829
▁generateCertPath	-12.8829
▁getAdvance	-12.8829
▁getPathBounds	-12.8829
▁getPermissions	-12.8829
▁hasNextLong	-12.8829
▁Interleaved	-12.8861
▁TabExpander	-12.8861
▁deepToString	-12.8861
▁getChildElements	-12.8861
▁getDirection	-12.8861
▁getHeaderValue	-12.8861
▁getRegion	-12.8861
▁grow	-12.8861
▁ComponentTest	-12.8893
▁RowFilter	-12.8893
▁getAn	-12.8893
▁Complet	-12.8925
▁Exchanger	-12.8925
▁FileFilterUsed	-12.8925
▁ProxyLazyValue	-12.8925
▁StoreException	-12.8925
▁applyComponent	-12.8925
▁getHeader	-12.8925
▁getMost	-12.8925
▁getVetoable	-12.8925
▁intersection	-12.8925
▁setMulti	-12.8925
▁DataException	-12.8958
▁ProductName	-12.8958
▁SQLInputImpl	-12.8958
▁clearWarnings	-12.8958
▁getPr	-12.8958
▁getRawPath	-12.8958
▁setMaxRows	-12.8958
▁toUri	-12.8958
▁DirectoryModel	-12.899
▁EntrySet	-12.899
▁JobAttributes	-12.899
▁Title	-12.899
▁findLoadedClass	-12.899
▁getActiveCount	-12.899
▁getEditorKit	-12.899
▁shutdownOutput	-12.899
▁toOctalString	-12.899
▁BasicHorizontal	-12.9022
▁Edit	-12.9022
▁External	-12.9022
▁availablePermits	-12.9022
▁getDropAction	-12.9022
▁roll	-12.9022
▁setLocale	-12.9022
▁Events	-12.9055
▁sendNotification	-12.9055
▁setSoLinger	-12.9055
▁string	-12.9055
▁AttributeValue	-12.9087
▁Increment	-12.9087
▁PBE	-12.9087
▁SimpleEntry	-12.9087
▁ensure	-12.9087
▁getFirstRow	-12.9087
▁getLeast	-12.9087
▁getRegistry	-12.9087
▁isISOControl	-12.9087
▁setField	-12.9087
▁writeEndDocument	-12.9087
▁Beans	-12.912
▁Expandable	-12.912
▁SAXSource	-12.912
▁Visitor	-12.912
▁awaitNanos	-12.912
▁de	-12.912
▁getCommitted	-12.912
▁getUpperBounds	-12.912
▁putConstraint	-12.912
▁ErrorListener	-12.9153
▁Horizontal	-12.9153
▁Non	-12.9153
▁Scale	-12.9153
▁TextAction	-12.9153
▁dDocument	-12.9153
▁drawChars	-12.9153
▁getJMenuBar	-12.9153
▁getNextException	-12.9153
▁CellUpdated	-12.9186
▁Common	-12.9186
▁LoginModule	-12.9186
▁TabularType	-12.9186
▁Trusted	-12.9186
▁done	-12.9186
▁getFontName	-12.9186
▁hasListeners	-12.9186
▁layoutContainer	-12.9186
▁setSubject	-12.9186
▁Arguments	-12.9219
▁SecuritySupport	-12.9219
▁Util	-12.9219
▁getFamily	-12.9219
▁getThreadInfo	-12.9219
▁intersect	-12.9219
▁replaceSelection	-12.9219
▁ur	-12.9219
▁Handshake	-12.9252
▁Savepoint	-12.9252
▁SourceVersion	-12.9252
▁TimeoutException	-12.9252
▁dropComplete	-12.9252
▁OverlayLayout	-12.9285
▁Sh	-12.9285
▁Threads	-12.9285
▁addAttributes	-12.9285
▁getTextField	-12.9285
▁getUIClassID	-12.9285
▁setAsciiStream	-12.9285
▁NameParser	-12.9319
▁SimpleFormatter	-12.9319
▁TabStop	-12.9319
▁ValueExp	-12.9319
▁Whitespace	-12.9319
▁isSynthetic	-12.9319
▁item	-12.9319
▁setByte	-12.9319
▁setFormatter	-12.9319
▁AccessibleValue	-12.9352
▁getDay	-12.9352
▁getLastSelected	-12.9352
▁isUnderflow	-12.9352
▁>>,	-12.9386
▁CaretPosition	-12.9386
▁CycleRoot	-12.9386
▁If	-12.9386
▁Pending	-12.9386
▁readCh	-12.9386
▁removeAttributes	-12.9386
▁GaugeMonitor	-12.942
▁PivotQuicksort	-12.942
▁ToString	-12.942
▁checkValidity	-12.942
▁createMBean	-12.942
▁getResultStream	-12.942
▁insertRow	-12.942
▁AdjustmentEvent	-12.9453
▁Filler	-12.9453
▁ImageInputStream	-12.9453
▁getAllByName	-12.9453
▁getInitial	-12.9453
▁highestOneBit	-12.9453
▁index	-12.9453
▁installProperty	-12.9453
▁newDuration	-12.9453
▁releaseShared	-12.9453
▁HierarchyEvent	-12.9487
▁Services	-12.9487
▁getMargin	-12.9487
▁hasWaiters	-12.9487
▁ElementVisitor	-12.9522
▁FileDataSource	-12.9522
▁Subcontext	-12.9522
▁SysexMessage	-12.9522
▁acceptDrop	-12.9522
▁odification	-12.9522
▁setRepeats	-12.9522
▁ActionListeners	-12.9556
▁ForComponent	-12.9556
▁MemoryCache	-12.9556
▁RejectedEx	-12.9556
▁ServletRequest	-12.9556
▁getArguments	-12.9556
▁getFrameRate	-12.9556
▁getScrollable	-12.9556
▁getTransaction	-12.9556
▁parseObject	-12.9556
▁CodeGen	-12.959
▁OrderFocus	-12.959
▁Requests	-12.959
▁Run	-12.959
▁Templates	-12.959
▁findClass	-12.959
▁finishConnect	-12.959
▁getBeanContext	-12.959
▁setProgress	-12.959
▁Add	-12.9624
▁ap	-12.9624
▁ion	-12.9624
▁setCellEditor	-12.9624
▁setStringPainted	-12.9624
▁ChoiceCallback	-12.9659
▁Entity	-12.9659
▁Span	-12.9659
▁clipRect	-12.9659
▁getColumnClass	-12.9659
▁getThreadName	-12.9659
▁setData	-12.9659
▁setResizeWeight	-12.9659
▁um	-12.9659
▁CommandMap	-12.9694
▁NotSerializable	-12.9694
▁SelectionRow	-12.9694
▁apply	-12.9694
▁getExtent	-12.9694
▁getFilter	-12.9694
▁getGlyph	-12.9694
▁newJMXConnector	-12.9694
▁Resol	-12.9728
▁SizeSequence	-12.9728
▁UID	-12.9728
▁getAttributeName	-12.9728
▁getContents	-12.9728
▁getDefaultValue	-12.9728
▁should	-12.9728
▁TableHeader	-12.9763
▁ex	-12.9763
▁getControlShadow	-12.9763
▁performAction	-12.9763
▁processingOver	-12.9763
▁Columns	-12.9798
▁Create	-12.9798
▁Null	-12.9798
▁fireVetoable	-12.9798
▁BoxPainter	-12.9833
▁ServiceProvider	-12.9833
▁Subsampling	-12.9833
▁asShortBuffer	-12.9833
▁getURI	-12.9833
▁setRenderer	-12.9833
▁Before	-12.9869
▁ImageSource	-12.9869
▁getOwnerType	-12.9869
▁setMethod	-12.9869
▁Argument	-12.9904
▁Render	-12.9904
▁getAndDecrement	-12.9904
▁getFileFilter	-12.9904
▁getSoTimeout	-12.9904
▁getSubElements	-12.9904
▁setIconImage	-12.9904
▁setSavepoint	-12.9904
▁ColorConvertOp	-12.994
▁Country	-12.994
▁FlavorException	-12.994
▁Port	-12.994
▁Servlet	-12.994
▁getBase	-12.994
▁setPixel	-12.994
▁Grid	-12.9975
▁getSubimage	-12.9975
▁ter	-12.9975
▁ChooserPanel	-13.0011
▁Con	-13.0011
▁clip	-13.0011
▁createComponent	-13.0011
▁element	-13.0011
▁getSelectedPath	-13.0011
▁setAcceptAll	-13.0011
▁setKeepAlive	-13.0011
▁xor	-13.0011
▁BasicMenuUI	-13.0047
▁BufferedPath	-13.0047
▁FloatControl	-13.0047
▁JComboBoxTest	-13.0047
▁MediaSize	-13.0047
▁SplitPaneUI	-13.0047
▁Stub	-13.0047
▁ad	-13.0047
▁createXMLEvent	-13.0047
▁getRuntimeMXBean	-13.0047
▁part	-13.0047
▁Space	-13.0083
▁ViewportSize	-13.0083
▁getJarFile	-13.0083
▁isFocusable	-13.0083
▁toCodePoint	-13.0083
▁updateString	-13.0083
▁ExpansionEvent	-13.0119
▁Receiver	-13.0119
▁getChildren	-13.0119
▁getCommand	-13.0119
▁impl	-13.0119
▁setL	-13.0119
▁setPolicy	-13.0119
▁setStackTrace	-13.0119
▁targetNamespace	-13.0119
▁toGenericString	-13.0119
▁whitespaceChars	-13.0119
▁DESKeySpec	-13.0156
▁Dual	-13.0156
▁ationCallback	-13.0156
▁getTextComponent	-13.0156
▁setArmed	-13.0156
▁setDividerSize	-13.0156
▁setF	-13.0156
▁setWritable	-13.0156
▁ActivationDesc	-13.0192
▁Confirm	-13.0192
▁DeclaredType	-13.0192
▁TestCase	-13.0192
▁cbrt	-13.0192
▁getFactory	-13.0192
▁getMapSize	-13.0192
▁parameterCount	-13.0192
▁removeSelection	-13.0192
▁Cannot	-13.0229
▁ConsoleHandler	-13.0229
▁InputException	-13.0229
▁Margin	-13.0229
▁PrintableArea	-13.0229
▁SSLException	-13.0229
▁getIV	-13.0229
▁throwException	-13.0229
▁KeySet	-13.0265
▁ProceedException	-13.0265
▁checkPackage	-13.0265
▁isAncestorOf	-13.0265
▁setPage	-13.0265
▁DragEvent	-13.0302
▁HostInfo	-13.0302
▁cosh	-13.0302
▁findResource	-13.0302
▁getGlobal	-13.0302
▁getIconTextGap	-13.0302
▁getPixelSize	-13.0302
▁getTotalOut	-13.0302
▁setAutoscrolls	-13.0302
▁CheckboxGroup	-13.0339
▁Multiple	-13.0339
▁createGlue	-13.0339
▁eferenceChanged	-13.0339
▁getUse	-13.0339
▁purge	-13.0339
▁checkIndex	-13.0376
▁hasQueuedThreads	-13.0376
▁post	-13.0376
▁rename	-13.0376
▁AtomicStamped	-13.0413
▁Checker	-13.0413
▁Collector	-13.0413
▁ForkJoinTask	-13.0413
▁IllegalMonitor	-13.0413
▁Justification	-13.0413
▁Write	-13.0413
▁arshalledObject	-13.0413
▁getISO	-13.0413
▁getMatrix	-13.0413
▁DataTruncation	-13.0451
▁NameImpl	-13.0451
▁Remove	-13.0451
▁getSpecification	-13.0451
▁setMinWidth	-13.0451
▁setX	-13.0451
▁StateNode	-13.0488
▁checkForCom	-13.0488
▁getBody	-13.0488
▁getEdits	-13.0488
▁getRenderingHint	-13.0488
▁getServerSocket	-13.0488
▁Redirect	-13.0526
▁Trans	-13.0526
▁getPathFor	-13.0526
▁MouseInput	-13.0564
▁Pack	-13.0564
▁ator	-13.0564
▁quadTo	-13.0564
▁setW	-13.0564
▁Down	-13.0602
▁getXOnScreen	-13.0602
▁isDaemon	-13.0602
▁ly	-13.0602
▁ContinuousLayout	-13.064
▁DigestMethod	-13.064
▁MatteBorder	-13.064
▁debug	-13.064
▁matchException	-13.064
▁removeHandler	-13.064
▁setDisplayName	-13.064
▁setFilter	-13.064
▁setSchema	-13.064
▁Bytecode	-13.0678
▁ComponentAt	-13.0678
▁FirstWeek	-13.0678
▁Serializable	-13.0678
▁copyValueOf	-13.0678
▁getDefaultDomain	-13.0678
▁isCellEditable	-13.0678
▁setBlob	-13.0678
▁StreamingMode	-13.0716
▁med	-13.0716
▁not	-13.0716
▁setE	-13.0716
▁tr	-13.0716
▁Close	-13.0755
▁ImmutableEntry	-13.0755
▁bytesProduced	-13.0755
▁decapitalize	-13.0755
▁getShared	-13.0755
▁im	-13.0755
▁setUn	-13.0755
▁unpark	-13.0755
▁DefaultKeyboard	-13.0794
▁ElementsHandler	-13.0794
▁FileManager	-13.0794
▁Mask	-13.0794
▁convertRowIndex	-13.0794
▁getCtrlX	-13.0794
▁getCtrlY	-13.0794
▁getUsage	-13.0794
▁getWriter	-13.0794
▁isM	-13.0794
▁Engine	-13.0832
▁IfNecessary	-13.0832
▁Vertical	-13.0832
▁canUndo	-13.0832
▁ment	-13.0832
▁pushBack	-13.0832
▁tanh	-13.0832
▁SourceDataLine	-13.0871
▁Up	-13.0871
▁breaksFlow	-13.0871
▁doAs	-13.0871
▁findColumn	-13.0871
▁getOptions	-13.0871
▁setRootVisible	-13.0871
▁CookieStore	-13.0911
▁GeneralSecurity	-13.0911
▁Metadata	-13.0911
▁PointerInfo	-13.0911
▁SAXTransformer	-13.0911
▁ToScreen	-13.0911
▁createSSLEngine	-13.0911
▁Pixel	-13.095
▁WithChildrenTest	-13.095
▁getColumnIndex	-13.095
▁getYOnScreen	-13.095
▁CellEditing	-13.0989
▁Itr	-13.0989
▁getApproveButton	-13.0989
▁getVgap	-13.0989
▁op	-13.0989
▁setCurve	-13.0989
▁utionSyntax	-13.0989
▁CheckingEnabled	-13.1029
▁Html	-13.1029
▁KeyInfoFactory	-13.1029
▁PaintManager	-13.1029
▁getErrorIndex	-13.1029
▁presentation	-13.1029
▁setRow	-13.1029
▁DomainCombiner	-13.1069
▁SerialClob	-13.1069
▁Target	-13.1069
▁asCharacters	-13.1069
▁getDashArray	-13.1069
▁newThread	-13.1069
▁acceptDrag	-13.1109
▁getKeyText	-13.1109
▁getPaint	-13.1109
▁getResolvedObj	-13.1109
▁internalSet	-13.1109
▁jjMove	-13.1109
▁Ext	-13.1149
▁First	-13.1149
▁containsAlias	-13.1149
▁getHttp	-13.1149
▁mallAttributeSet	-13.1149
▁pollLast	-13.1149
▁setHeaderValue	-13.1149
▁setResource	-13.1149
▁AbstractOwnable	-13.1189
▁Exp	-13.1189
▁OwnerThread	-13.1189
▁ParserCallback	-13.1189
▁PipedInputStream	-13.1189
▁PolicyParser	-13.1189
▁Positions	-13.1189
▁QueueLength	-13.1189
▁TimSort	-13.1189
▁getDropTar	-13.1189
▁getHeaderFields	-13.1189
▁getWait	-13.1189
▁setFirst	-13.1189
▁setHours	-13.1189
▁transferFocus	-13.1189
▁getHSBColor	-13.1229
▁getImageableY	-13.1229
▁getMessager	-13.1229
▁isResizable	-13.1229
▁setClob	-13.1229
▁Logical	-13.127
▁StringLiteralDfa	-13.127
▁ecutionHandler	-13.127
▁getViewRect	-13.127
▁setUse	-13.127
▁ArrayRetained	-13.1311
▁DRect	-13.1311
▁DirectoryStream	-13.1311
▁ElementContent	-13.1311
▁ForLocation	-13.1311
▁IntegerSyntax	-13.1311
▁con	-13.1311
▁getMark	-13.1311
▁ic	-13.1311
▁isBlock	-13.1311
▁om	-13.1311
▁ForEvent	-13.1352
▁HSBtoRGB	-13.1352
▁Providers	-13.1352
▁SOAPBody	-13.1352
▁canExecute	-13.1352
▁setXORMode	-13.1352
▁Cookie	-13.1393
▁HighlightPainter	-13.1393
▁WriteObjCounter	-13.1393
▁addToEnvironment	-13.1393
▁sRootHandles	-13.1393
▁Active	-13.1434
▁CheckBox	-13.1434
▁CookieManager	-13.1434
▁DateModel	-13.1434
▁Leaf	-13.1434
▁MetalRootPaneUI	-13.1434
▁Unicast	-13.1434
▁getPrevious	-13.1434
▁getTile	-13.1434
▁isZero	-13.1434
▁ive	-13.1434
▁ordinaryChar	-13.1434
▁Allowed	-13.1475
▁Edge	-13.1475
▁Hyperlink	-13.1475
▁IdentityScope	-13.1475
▁JDesktopIcon	-13.1475
▁Last	-13.1475
▁ToggleButtonUI	-13.1475
▁addProvider	-13.1475
▁ant	-13.1475
▁clean	-13.1475
▁getExtendedState	-13.1475
▁lowestOneBit	-13.1475
▁newUpdater	-13.1475
▁EmptyElement	-13.1517
▁High	-13.1517
▁Horizon	-13.1517
▁addInternal	-13.1517
▁addTreeSelection	-13.1517
▁canRedo	-13.1517
▁drawArc	-13.1517
▁getDragSource	-13.1517
▁le	-13.1517
▁newPermission	-13.1517
▁save	-13.1517
▁setMinutes	-13.1517
▁setOneTouch	-13.1517
▁Category	-13.1559
▁ContextWrapper	-13.1559
▁Max	-13.1559
▁abortRequested	-13.1559
▁checkWrite	-13.1559
▁derive	-13.1559
▁enable	-13.1559
▁getImageableX	-13.1559
▁getRemainingName	-13.1559
▁setParameters	-13.1559
▁updateObject	-13.1559
▁Matrix	-13.1601
▁Qu	-13.1601
▁ent	-13.1601
▁getCorePoolSize	-13.1601
▁getInited	-13.1601
▁isMetaDown	-13.1601
▁newValidator	-13.1601
▁symbol	-13.1601
▁ual	-13.1601
▁Owner	-13.1643
▁Representation	-13.1643
▁Selected	-13.1643
▁findWithin	-13.1643
▁getCertPath	-13.1643
▁getModelIndex	-13.1643
▁getShearX	-13.1643
▁isLink	-13.1643
▁removeProvider	-13.1643
▁se	-13.1643
▁setPr	-13.1643
▁ElementEdit	-13.1685
▁FromAttributes	-13.1685
▁Instruction	-13.1685
▁StyledTextAction	-13.1685
▁age	-13.1685
▁otateInstance	-13.1685
▁relative	-13.1685
▁try	-13.1685
▁XmlElement	-13.1727
▁checkConnect	-13.1727
▁il	-13.1727
▁out	-13.1727
▁rangeCheck	-13.1727
▁CryptoContext	-13.177
▁Log	-13.177
▁PaintersManager	-13.177
▁TableElementInfo	-13.177
▁TreeCellRenderer	-13.177
▁WithArguments	-13.177
▁all	-13.177
▁getMnemonic	-13.177
▁ize	-13.177
▁modInverse	-13.177
▁setDirection	-13.177
▁setEnabledAt	-13.177
▁ButtonAreaLayout	-13.1813
▁CompilationTask	-13.1813
▁Exact	-13.1813
▁FromParent	-13.1813
▁TableHeaderEntry	-13.1813
▁AudioFile	-13.1856
▁CollectorMXBean	-13.1856
▁Flavor	-13.1856
▁Runner	-13.1856
▁ServiceRevoked	-13.1856
▁StreamCor	-13.1856
▁getAnonymous	-13.1856
▁getCategory	-13.1856
▁getCompression	-13.1856
▁getThreadState	-13.1856
▁lazySet	-13.1856
▁setUserObject	-13.1856
▁ConvolveOp	-13.1899
▁Word	-13.1899
▁cestorOfClass	-13.1899
▁isPreformatted	-13.1899
▁removeComponent	-13.1899
▁sIn	-13.1899
▁writeChars	-13.1899
▁Al	-13.1942
▁Posix	-13.1942
▁getExclusive	-13.1942
▁getPathComponent	-13.1942
▁getQueueLength	-13.1942
▁isFocusCycleRoot	-13.1942
▁isMaximum	-13.1942
▁isMulticast	-13.1942
▁source	-13.1942
▁Axis	-13.1986
▁Destination	-13.1986
▁Immutable	-13.1986
▁ThreadPool	-13.1986
▁ValidatorResult	-13.1986
▁getRGBdefault	-13.1986
▁getTableName	-13.1986
▁newScheduled	-13.1986
▁parameterType	-13.1986
▁rejectDrag	-13.1986
▁setCompression	-13.1986
▁setLoggerName	-13.1986
▁toSeconds	-13.1986
▁tree	-13.1986
▁FormInput	-13.203
▁LayoutFocus	-13.203
▁getFault	-13.203
▁getRenderer	-13.203
▁installColors	-13.203
▁isAfterLast	-13.203
▁isL	-13.203
▁scapeProcessing	-13.203
▁scrollPath	-13.203
▁setVgap	-13.203
▁Forwarding	-13.2074
▁Instanti	-13.2074
▁ManagerMXBean	-13.2074
▁Threshold	-13.2074
▁insertNodeInto	-13.2074
▁processKeyEvent	-13.2074
▁setC	-13.2074
▁setLead	-13.2074
▁Java	-13.2118
▁ParsingException	-13.2118
▁SeparatorUI	-13.2118
▁Store	-13.2118
▁ary	-13.2118
▁cas	-13.2118
▁getNameParser	-13.2118
▁getShearY	-13.2118
▁insertUpdate	-13.2118
▁Dec	-13.2162
▁ELResolver	-13.2162
▁Japanese	-13.2162
▁Load	-13.2162
▁Loader	-13.2162
▁MetalTitlePane	-13.2162
▁NamedStyle	-13.2162
▁Nanos	-13.2162
▁RTFReader	-13.2162
▁RendererPane	-13.2162
▁TextSyntax	-13.2162
▁UIComponent	-13.2162
▁addImpl	-13.2162
▁asCharBuffer	-13.2162
▁createRegistry	-13.2162
▁getRequesting	-13.2162
▁putProperty	-13.2162
▁setAutoCreate	-13.2162
▁setY	-13.2162
▁AncestorEvent	-13.2207
▁CompoundLabel	-13.2207
▁Failed	-13.2207
▁Main	-13.2207
▁[]>)</t>	-13.2207
▁createPosition	-13.2207
▁findPainter	-13.2207
▁getBinding	-13.2207
▁getReference	-13.2207
▁isBeforeFirst	-13.2207
▁merge	-13.2207
▁paintImage	-13.2207
▁reload	-13.2207
▁DHKey	-13.2252
▁Mirror	-13.2252
▁Partial	-13.2252
▁getMaxRows	-13.2252
▁isBold	-13.2252
▁park	-13.2252
▁putDefaults	-13.2252
▁setParse	-13.2252
▁useRadix	-13.2252
▁valid	-13.2252
▁ClassFactory	-13.2296
▁ComponentSpring	-13.2296
▁ConverterImpl	-13.2296
▁Messager	-13.2296
▁New	-13.2296
▁Walker	-13.2296
▁assert	-13.2296
▁choose	-13.2296
▁ized	-13.2296
▁printMessage	-13.2296
▁up	-13.2296
▁One	-13.2342
▁getLeftComponent	-13.2342
▁getMemoryMXBean	-13.2342
▁getOpposite	-13.2342
▁isFocus	-13.2342
▁isLightweight	-13.2342
▁listBindings	-13.2342
▁BasicLabelUI	-13.2387
▁Binary	-13.2387
▁ImperialCalendar	-13.2387
▁getFrameLength	-13.2387
▁invokeAny	-13.2387
▁Cycle	-13.2433
▁DNSOutgoing	-13.2433
▁EC	-13.2433
▁HandshakeStatus	-13.2433
▁JMX	-13.2433
▁MenuListener	-13.2433
▁Moved	-13.2433
▁RGB	-13.2433
▁ResponseCache	-13.2433
▁Worker	-13.2433
▁asElement	-13.2433
▁getDriver	-13.2433
▁isWriteLocked	-13.2433
▁paintImmediately	-13.2433
▁parentOf	-13.2433
▁setNanos	-13.2433
▁ted	-13.2433
▁Controls	-13.2478
▁Normalizer	-13.2478
▁PresentationName	-13.2478
▁ResponseControl	-13.2478
▁SOAPHeader	-13.2478
▁SelectorMapping	-13.2478
▁ers	-13.2478
▁getSelectedFrame	-13.2478
▁setResult	-13.2478
▁InputMethodEvent	-13.2524
▁KeyBinding	-13.2524
▁getDataTypeSize	-13.2524
▁getPointerInfo	-13.2524
▁getScreenDevices	-13.2524
▁ies	-13.2524
▁rejectDrop	-13.2524
▁setDialogType	-13.2524
▁1.	-13.257
▁BoundedMap	-13.257
▁Classes	-13.257
▁Connect	-13.257
▁DelayedWorkQueue	-13.257
▁NoSuchField	-13.257
▁ProgressListener	-13.257
▁ServerFactory	-13.257
▁SocketOption	-13.257
▁Zone	-13.257
▁addObserver	-13.257
▁getImageWriter	-13.257
▁orderingAllowed	-13.257
▁pollFirstEntry	-13.257
▁setNClob	-13.257
▁CodeIterator	-13.2617
▁DecorationStyle	-13.2617
▁DividerLocation	-13.2617
▁FlowStrategy	-13.2617
▁OtherPrimeInfo	-13.2617
▁ReaderDelegate	-13.2617
▁Res	-13.2617
▁getResolveParent	-13.2617
▁precision	-13.2617
▁Concurrency	-13.2663
▁PaddingException	-13.2663
▁Per	-13.2663
▁Qualifier	-13.2663
▁cu	-13.2663
▁doPhase	-13.2663
▁formatMessage	-13.2663
▁getExtra	-13.2663
▁getRootView	-13.2663
▁getSelectedFiles	-13.2663
▁isPopupVisible	-13.2663
▁NameNotFound	-13.271
▁Pos	-13.271
▁RMIClassLoader	-13.271
▁Rows	-13.271
▁getCodeBase	-13.271
▁getShow	-13.271
▁isSupplementary	-13.271
▁setUnitIncrement	-13.271
▁Join	-13.2757
▁quoteChar	-13.2757
▁OceanTheme	-13.2805
▁SOAPConnection	-13.2805
▁getUser	-13.2805
▁heritsPopupMenu	-13.2805
▁internal	-13.2805
▁Alias	-13.2852
▁Back	-13.2852
▁En	-13.2852
▁Weak	-13.2852
▁XMLFormatter	-13.2852
▁als	-13.2852
▁getFormats	-13.2852
▁getMessageDigest	-13.2852
▁getOperations	-13.2852
▁ill	-13.2852
▁isError	-13.2852
▁LookupTable	-13.29
▁MacSpi	-13.29
▁MemoryHandler	-13.29
▁Resolution	-13.29
▁WindowState	-13.29
▁drop	-13.29
▁getDisabledIcon	-13.29
▁getEntries	-13.29
▁getSequence	-13.29
▁pollLastEntry	-13.29
▁readAttributes	-13.29
▁ByPlatform	-13.2948
▁ColorComponents	-13.2948
▁getBlack	-13.2948
▁getShadow	-13.2948
▁getThumbBounds	-13.2948
▁setRowCount	-13.2948
▁yybegin	-13.2948
▁JToolTip	-13.2996
▁NoSuchProvider	-13.2996
▁entryInstanceOf	-13.2996
▁getEngineByName	-13.2996
▁getLineMetrics	-13.2996
▁getTransformer	-13.2996
▁isS	-13.2996
▁red	-13.2996
▁ForkJoinPool	-13.3044
▁ard	-13.3044
▁el	-13.3044
▁fireEditing	-13.3044
▁getSpan	-13.3044
▁if	-13.3044
▁lect	-13.3044
▁mousePressed	-13.3044
▁CaretListener	-13.3093
▁LoadingMXBean	-13.3093
▁checkRead	-13.3093
▁expandRow	-13.3093
▁getLowerBounds	-13.3093
▁processEvent	-13.3093
▁ButtonModelTest	-13.3142
▁Definition	-13.3142
▁DragSourceEvent	-13.3142
▁GenParameterSpec	-13.3142
▁HandleTable	-13.3142
▁IdentifierPart	-13.3142
▁Match	-13.3142
▁Selectable	-13.3142
▁SelectedIcon	-13.3142
▁Tail	-13.3142
▁Thumb	-13.3142
▁getIndexOf	-13.3142
▁getOutline	-13.3142
▁lexer	-13.3142
▁message	-13.3142
▁setPressed	-13.3142
▁CRLException	-13.3191
▁ContentHandler	-13.3191
▁GlyphMetrics	-13.3191
▁NumberEditor	-13.3191
▁SoundScheduler	-13.3191
▁ToView	-13.3191
▁indexOfComponent	-13.3191
▁isSite	-13.3191
▁200.	-13.3241
▁IIORead	-13.3241
▁ImageFilter	-13.3241
▁SealedObject	-13.3241
▁ServletResponse	-13.3241
▁SynthParser	-13.3241
▁editCellAt	-13.3241
▁getAsText	-13.3241
▁getCert	-13.3241
▁indent	-13.3241
▁isIdentity	-13.3241
▁parkNanos	-13.3241
▁peekFirst	-13.3241
▁readyOps	-13.3241
▁synchronizedSet	-13.3241
▁AndSet	-13.329
▁Case	-13.329
▁ChildState	-13.329
▁ColorChooserUI	-13.329
▁Drop	-13.329
▁Host	-13.329
▁LazyActionMap	-13.329
▁PositionForValue	-13.329
▁Sizes	-13.329
▁ast	-13.329
▁atch	-13.329
▁ated	-13.329
▁getPrinterJob	-13.329
▁getPrompt	-13.329
▁getRunLimit	-13.329
▁getTreePath	-13.329
▁handleStartTag	-13.329
▁isNullable	-13.329
▁isRowSelected	-13.329
▁FormViewTest	-13.334
▁HashIterator	-13.334
▁Keys	-13.334
▁OuterColor	-13.334
▁Slot	-13.334
▁getProxyClass	-13.334
▁printDialog	-13.334
▁scroll	-13.334
▁setCrc	-13.334
▁ComboBox	-13.339
▁Complete	-13.339
▁Drag	-13.339
▁ToolBar	-13.339
▁attach	-13.339
▁descending	-13.339
▁getDecimal	-13.339
▁ir	-13.339
▁Cancell	-13.3441
▁DropTargetEvent	-13.3441
▁TagAction	-13.3441
▁TaskCount	-13.3441
▁Token	-13.3441
▁getColumnNumber	-13.3441
▁getTabBounds	-13.3441
▁getTotal	-13.3441
▁insertProviderAt	-13.3441
▁setAnchor	-13.3441
▁sub	-13.3441
▁AccessibleText	-13.3491
▁Filer	-13.3491
▁MenuKeyListener	-13.3491
▁getDisabled	-13.3491
▁isR	-13.3491
▁isWhiteSpace	-13.3491
▁moveToInsertRow	-13.3491
▁setRolloverIcon	-13.3491
▁setSnapToTicks	-13.3491
▁unlink	-13.3491
▁$	-13.3542
▁Available	-13.3542
▁Buttons	-13.3542
▁JarVerifier	-13.3542
▁Required	-13.3542
▁Sp	-13.3542
▁VerticalLines	-13.3542
▁createInverse	-13.3542
▁getParameterSpec	-13.3542
▁setInitialDelay	-13.3542
▁IEEEremainder	-13.3593
▁InExpandControl	-13.3593
▁LoadStore	-13.3593
▁Scatter	-13.3593
▁SyncProvider	-13.3593
▁VariableElement	-13.3593
▁ac	-13.3593
▁getMostRecent	-13.3593
▁getSocketAddress	-13.3593
▁isItalic	-13.3593
▁newCall	-13.3593
▁ow	-13.3593
▁setDirectory	-13.3593
▁shutdownInput	-13.3593
▁7(	-13.3645
▁Mapped	-13.3645
▁SOAPBinding	-13.3645
▁SerialBlob	-13.3645
▁Suffix	-13.3645
▁WebParam	-13.3645
▁assertChildren	-13.3645
▁assertSizes	-13.3645
▁getDataSource	-13.3645
▁getLockName	-13.3645
▁getRes	-13.3645
▁grabFocus	-13.3645
▁isVarArgs	-13.3645
▁useDaylightTime	-13.3645
▁writeLine	-13.3645
▁Already	-13.3696
▁CharacterData	-13.3696
▁Faces	-13.3696
▁GraphicAttribute	-13.3696
▁findInLine	-13.3696
▁getAttributeKey	-13.3696
▁getDropLocation	-13.3696
▁moveDot	-13.3696
▁setSeconds	-13.3696
▁ChangeDesc	-13.3748
▁ConvertAttr	-13.3748
▁InnerColor	-13.3748
▁Lex	-13.3748
▁ModelTest	-13.3748
▁Syntax	-13.3748
▁expm	-13.3748
▁export	-13.3748
▁getSerial	-13.3748
▁inc	-13.3748
▁nextBigDecimal	-13.3748
▁toGr	-13.3748
▁ute	-13.3748
▁ModificationItem	-13.3801
▁PKIXBuilder	-13.3801
▁Pair	-13.3801
▁TableHeaderCell	-13.3801
▁VersionUID	-13.3801
▁complete	-13.3801
▁debugPrint	-13.3801
▁getCompleted	-13.3801
▁getRawQuery	-13.3801
▁hasNextByte	-13.3801
▁isCharacters	-13.3801
▁isOverflow	-13.3801
▁setErrorIndex	-13.3801
▁BadLocation	-13.3853
▁CSSParser	-13.3853
▁Mimetypes	-13.3853
▁Real	-13.3853
▁childrenNames	-13.3853
▁convertTo	-13.3853
▁getCache	-13.3853
▁getScroll	-13.3853
▁getTotalIn	-13.3853
▁isLocation	-13.3853
▁isMemberClass	-13.3853
▁nCopies	-13.3853
▁removeColumn	-13.3853
▁Completed	-13.3906
▁Limit	-13.3906
▁RMIServerSocket	-13.3906
▁Toggle	-13.3906
▁createUnresolved	-13.3906
▁drag	-13.3906
▁ger	-13.3906
▁getCode	-13.3906
▁getDataVector	-13.3906
▁getPro	-13.3906
▁getThreadId	-13.3906
▁isN	-13.3906
▁line	-13.3906
▁newTemplates	-13.3906
▁resize	-13.3906
▁sByFormatName	-13.3906
▁setCatalog	-13.3906
▁use	-13.3906
▁64	-13.3959
▁Bitmap	-13.3959
▁MemoryError	-13.3959
▁Operating	-13.3959
▁OutOf	-13.3959
▁PSource	-13.3959
▁Scroll	-13.3959
▁VisibleIndex	-13.3959
▁calculateTabArea	-13.3959
▁findEditor	-13.3959
▁installBorder	-13.3959
▁removeInternal	-13.3959
▁shift	-13.3959
▁uisToArray	-13.3959
▁Exists	-13.4012
▁PageAttributes	-13.4012
▁StackMapTable	-13.4012
▁bytesConsumed	-13.4012
▁chooseFirst	-13.4012
▁cl	-13.4012
▁clearBatch	-13.4012
▁isIdentifier	-13.4012
▁isMulti	-13.4012
▁mouseReleased	-13.4012
▁ol	-13.4012
▁tryAcquireShared	-13.4012
▁18	-13.4066
▁DESedeKeySpec	-13.4066
▁Left	-13.4066
▁Reason	-13.4066
▁Script	-13.4066
▁ShutdownHook	-13.4066
▁Started	-13.4066
▁createUIs	-13.4066
▁getAsciiStream	-13.4066
▁getFetchSize	-13.4066
▁getSubString	-13.4066
▁BigInt	-13.412
▁FlagsException	-13.412
▁Heap	-13.412
▁InlineView	-13.412
▁MissingResource	-13.412
▁Z	-13.412
▁addImage	-13.412
▁am	-13.412
▁createSaslClient	-13.412
▁getDesktopPane	-13.412
▁getPermission	-13.412
▁handleText	-13.412
▁isAnonymousClass	-13.412
▁table	-13.412
▁HTMLTextAction	-13.4174
▁Lead	-13.4174
▁getIssuer	-13.4174
▁removeUpdate	-13.4174
▁setHgap	-13.4174
▁setSelectionEnd	-13.4174
▁z	-13.4174
▁ControlFlag	-13.4228
▁EWAHCompressed	-13.4228
▁Right	-13.4228
▁des	-13.4228
▁eg	-13.4228
▁enqueue	-13.4228
▁erial	-13.4228
▁getDestination	-13.4228
▁getMaxAscent	-13.4228
▁keyFor	-13.4228
▁my	-13.4228
▁setReadable	-13.4228
▁IntegerOnly	-13.4283
▁ded	-13.4283
▁deleteEntry	-13.4283
▁expand	-13.4283
▁following	-13.4283
▁gcd	-13.4283
▁getVisibleAmount	-13.4283
▁getWhite	-13.4283
▁joinGroup	-13.4283
▁setMax	-13.4283
▁setPopupVisible	-13.4283
▁ymbolicLink	-13.4283
▁AtPosition	-13.4338
▁Options	-13.4338
▁St	-13.4338
▁UseCaches	-13.4338
▁getChildrenAdded	-13.4338
▁getGrouping	-13.4338
▁getInvoker	-13.4338
▁ind	-13.4338
▁isEnabledAt	-13.4338
▁isKeyEntry	-13.4338
▁newMBeanServer	-13.4338
▁AndCreate	-13.4394
▁BasicHTML	-13.4394
▁Metrics	-13.4394
▁ReaderTest	-13.4394
▁SupportTest	-13.4394
▁deleteRow	-13.4394
▁dispatch	-13.4394
▁getClosestPath	-13.4394
▁getElementUtils	-13.4394
▁getUserName	-13.4394
▁listRoots	-13.4394
▁offerLast	-13.4394
▁setViewport	-13.4394
▁AtX	-13.4449
▁Copy	-13.4449
▁TreeExpansion	-13.4449
▁createSaslServer	-13.4449
▁fireTableChanged	-13.4449
▁for	-13.4449
▁getActualMinimum	-13.4449
▁getLayer	-13.4449
▁getNewLead	-13.4449
▁getRows	-13.4449
▁getTabbedText	-13.4449
▁mouseClicked	-13.4449
▁ver	-13.4449
▁ChangesTest	-13.4505
▁DefaultInitCtx	-13.4505
▁ET	-13.4505
▁JAXB	-13.4505
▁OAEP	-13.4505
▁Sw	-13.4505
▁XMLParser	-13.4505
▁ea	-13.4505
▁getHighlighter	-13.4505
▁getNotAfter	-13.4505
▁getSelectionMode	-13.4505
▁hit	-13.4505
▁isA	-13.4505
▁isLayoutValid	-13.4505
▁sFromFiles	-13.4505
▁EmptyStack	-13.4562
▁ExtensionFilter	-13.4562
▁FileName	-13.4562
▁GeneratorSpi	-13.4562
▁ListUI	-13.4562
▁Off	-13.4562
▁RenderableImage	-13.4562
▁Ssl	-13.4562
▁ality	-13.4562
▁isConnection	-13.4562
▁isReachable	-13.4562
▁isRepresentation	-13.4562
▁recover	-13.4562
▁ByteBufferAs	-13.4618
▁DefaultInit	-13.4618
▁DirCtx	-13.4618
▁Gather	-13.4618
▁Hit	-13.4618
▁HorizontalLines	-13.4618
▁SynthSliderUI	-13.4618
▁UsageThreshold	-13.4618
▁drawPolyline	-13.4618
▁edBevelBorder	-13.4618
▁evocationEnabled	-13.4618
▁getMaxDescent	-13.4618
▁isIn	-13.4618
▁isRootVisible	-13.4618
▁returnType	-13.4618
▁setSelectionRow	-13.4618
▁setYear	-13.4618
▁AccessControl	-13.4675
▁Disabled	-13.4675
▁DragWindow	-13.4675
▁FirstEnumeration	-13.4675
▁ForName	-13.4675
▁Init	-13.4675
▁PrivateCrt	-13.4675
▁RSAMultiPrime	-13.4675
▁getAccessory	-13.4675
▁getCurrentTheme	-13.4675
▁isCaseSensitive	-13.4675
▁isLocked	-13.4675
▁loadChildren	-13.4675
▁preferredSize	-13.4675
▁setHeight	-13.4675
▁setPaintMode	-13.4675
▁DNSEntry	-13.4733
▁DNSState	-13.4733
▁EndElement	-13.4733
▁Garbage	-13.4733
▁JLayer	-13.4733
▁ListModelTest	-13.4733
▁canDisplay	-13.4733
▁engineSet	-13.4733
▁getRunCount	-13.4733
▁getSign	-13.4733
▁isClosable	-13.4733
▁setIconTextGap	-13.4733
▁toPath	-13.4733
▁version	-13.4733
▁Accessor	-13.479
▁AndFont	-13.479
▁BasicRootPaneUI	-13.479
▁Chars	-13.479
▁MetalSliderUI	-13.479
▁Origin	-13.479
▁getElemDouble	-13.479
▁setEntry	-13.479
▁setRootPane	-13.479
▁DNS	-13.4848
▁EditorDelegate	-13.4848
▁Flattening	-13.4848
▁ListenerListTest	-13.4848
▁Params	-13.4848
▁Recognizer	-13.4848
▁addPopupMenu	-13.4848
▁andNot	-13.4848
▁checkBounds	-13.4848
▁getEdit	-13.4848
▁getPopup	-13.4848
▁setElemFloat	-13.4848
▁synchronized	-13.4848
▁AssertionStatus	-13.4907
▁Continuation	-13.4907
▁JavancssTest	-13.4907
▁Meta	-13.4907
▁Occurred	-13.4907
▁Printable	-13.4907
▁RelationSet	-13.4907
▁SelectedPath	-13.4907
▁SocketHandler	-13.4907
▁addRule	-13.4907
▁ay	-13.4907
▁drain	-13.4907
▁getElemFloat	-13.4907
▁getLineJoin	-13.4907
▁getMinimalDaysIn	-13.4907
▁isLast	-13.4907
▁isTopLevelMenu	-13.4907
▁mapLibraryName	-13.4907
▁require	-13.4907
▁ve	-13.4907
▁Activatable	-13.4965
▁FileView	-13.4965
▁MissingFormat	-13.4965
▁Pool	-13.4965
▁Return	-13.4965
▁ShapeTestCase	-13.4965
▁SortKey	-13.4965
▁ThreadCpuTime	-13.4965
▁XADataSource	-13.4965
▁addLogger	-13.4965
▁getXAConnection	-13.4965
▁isMaximizable	-13.4965
▁isProbablePrime	-13.4965
▁isSubscript	-13.4965
▁one	-13.4965
▁unregister	-13.4965
▁BasicMenuBarUI	-13.5024
▁Challenge	-13.5024
▁Device	-13.5024
▁FormatError	-13.5024
▁LDAPCertStore	-13.5024
▁Over	-13.5024
▁SecretKey	-13.5024
▁Sound	-13.5024
▁checkSecurity	-13.5024
▁getDefaultPort	-13.5024
▁getOutput	-13.5024
▁getRaw	-13.5024
▁isBigEndian	-13.5024
▁latest	-13.5024
▁sChildren	-13.5024
▁setDragEnabled	-13.5024
▁us	-13.5024
▁ClassDesc	-13.5084
▁Instrumentation	-13.5084
▁UpdateTest	-13.5084
▁XAConnection	-13.5084
▁createLower	-13.5084
▁getCompositeType	-13.5084
▁getEnd	-13.5084
▁getList	-13.5084
▁getReuseAddress	-13.5084
▁getXAResource	-13.5084
▁nodeChanged	-13.5084
▁setElemDouble	-13.5084
▁text	-13.5084
▁time	-13.5084
▁CharConversion	-13.5143
▁EnumSyntax	-13.5143
▁Exclusively	-13.5143
▁FromAction	-13.5143
▁Full	-13.5143
▁KeySelector	-13.5143
▁MarginBorder	-13.5143
▁drawInverted	-13.5143
▁getBlock	-13.5143
▁getCorner	-13.5143
▁getEndCap	-13.5143
▁getMiterLimit	-13.5143
▁getMonths	-13.5143
▁getStatement	-13.5143
▁isModal	-13.5143
▁nodeExists	-13.5143
▁paintText	-13.5143
▁CRLEntry	-13.5203
▁Headers	-13.5203
▁ListData	-13.5203
▁NewLineTest	-13.5203
▁PrintException	-13.5203
▁addSelectionPath	-13.5203
▁evaluateResponse	-13.5203
▁getBasic	-13.5203
▁getByInetAddress	-13.5203
▁getCipherSuite	-13.5203
▁getRowFor	-13.5203
▁minimumSize	-13.5203
▁nextTabStop	-13.5203
▁setParagraph	-13.5203
▁setStrength	-13.5203
▁ut	-13.5203
▁ArrayTable	-13.5264
▁Bu	-13.5264
▁CharProperty	-13.5264
▁KeyIdentifier	-13.5264
▁Mime	-13.5264
▁NumericValueExp	-13.5264
▁avigationFilter	-13.5264
▁getMask	-13.5264
▁getTargetContext	-13.5264
▁grabPixels	-13.5264
▁openWriter	-13.5264
▁rotateRight	-13.5264
▁setSSL	-13.5264
▁BasicControl	-13.5325
▁BlockIncrement	-13.5325
▁Charsets	-13.5325
▁Equals	-13.5325
▁General	-13.5325
▁Holdability	-13.5325
▁getBean	-13.5325
▁getUIInputMap	-13.5325
▁getWordInstance	-13.5325
▁inRange	-13.5325
▁isOutputShutdown	-13.5325
▁isPathSelected	-13.5325
▁logout	-13.5325
▁q	-13.5325
▁removeVetoable	-13.5325
▁setSystemId	-13.5325
▁sure	-13.5325
▁An	-13.5386
▁Bean	-13.5386
▁ComponentFactory	-13.5386
▁Swing	-13.5386
▁TabbedPaneLayout	-13.5386
▁asDoubleBuffer	-13.5386
▁casNext	-13.5386
▁ide	-13.5386
▁ig	-13.5386
▁isUnresolved	-13.5386
▁setup	-13.5386
▁weakCompare	-13.5386
▁Copies	-13.5447
▁Depth	-13.5447
▁FieldView	-13.5447
▁FontSize	-13.5447
▁IllegalThread	-13.5447
▁PoolDataSource	-13.5447
▁SizeException	-13.5447
▁UITestComponent	-13.5447
▁createFormView	-13.5447
▁guess	-13.5447
▁ify	-13.5447
▁ot	-13.5447
▁play	-13.5447
▁target	-13.5447
▁toTitleCase	-13.5447
▁Ch	-13.5509
▁CtClass	-13.5509
▁Interrupted	-13.5509
▁ItemSelectable	-13.5509
▁Locator	-13.5509
▁MajorVersion	-13.5509
▁MenuKeyEvent	-13.5509
▁MouseMotion	-13.5509
▁SegmentCache	-13.5509
▁Session	-13.5509
▁SyncFactory	-13.5509
▁file	-13.5509
▁genKeyPair	-13.5509
▁getAccelerator	-13.5509
▁getApplication	-13.5509
▁getLockOwnerName	-13.5509
▁parent	-13.5509
▁setAuthorized	-13.5509
▁setPort	-13.5509
▁AuthPermission	-13.5571
▁Effect	-13.5571
▁Intersection	-13.5571
▁InvocationEvent	-13.5571
▁QueuedThreads	-13.5571
▁essedSize	-13.5571
▁getCompr	-13.5571
▁getO	-13.5571
▁ified	-13.5571
▁isFirst	-13.5571
▁queryMBeans	-13.5571
▁setCursorName	-13.5571
▁setMatchColumn	-13.5571
▁AWT	-13.5634
▁ActionPerformed	-13.5634
▁Advance	-13.5634
▁ComboPopup	-13.5634
▁ScreenCapture	-13.5634
▁casHead	-13.5634
▁console	-13.5634
▁getBlockSize	-13.5634
▁setGr	-13.5634
▁sp	-13.5634
▁CacheKey	-13.5697
▁ListenerMethod	-13.5697
▁WidthException	-13.5697
▁Wrap	-13.5697
▁addURL	-13.5697
▁createPacked	-13.5697
▁cut	-13.5697
▁getBidiLevel	-13.5697
▁getDashPhase	-13.5697
▁getPrimeExponent	-13.5697
▁te	-13.5697
▁Display	-13.5761
▁SSLProtocol	-13.5761
▁Structure	-13.5761
▁act	-13.5761
▁getAWTKeyStroke	-13.5761
▁getMimeType	-13.5761
▁getV	-13.5761
▁isLeapYear	-13.5761
▁isSet	-13.5761
▁izable	-13.5761
▁range	-13.5761
▁riticalExtension	-13.5761
▁setAddress	-13.5761
▁setImage	-13.5761
▁setView	-13.5761
▁toLocaleString	-13.5761
▁windowClosing	-13.5761
▁ASCII	-13.5825
▁BinaryStream	-13.5825
▁CustomCursor	-13.5825
▁Forward	-13.5825
▁Indent	-13.5825
▁IntervalState	-13.5825
▁MBeanServerIn	-13.5825
▁NumberFormatter	-13.5825
▁Q	-13.5825
▁Reset	-13.5825
▁Stopped	-13.5825
▁URIResolver	-13.5825
▁aphicAttribute	-13.5825
▁getGroup	-13.5825
▁getSchema	-13.5825
▁isInputShutdown	-13.5825
▁leading	-13.5825
▁namespace	-13.5825
▁peekLast	-13.5825
▁ri	-13.5825
▁setExpandedState	-13.5825
▁setSelectedValue	-13.5825
▁unexportObject	-13.5825
▁unsetMatchColumn	-13.5825
▁3.	-13.5889
▁ClassException	-13.5889
▁ContextException	-13.5889
▁FilterReader	-13.5889
▁Ignorable	-13.5889
▁Red	-13.5889
▁SoftBevelBorder	-13.5889
▁Usage	-13.5889
▁Use	-13.5889
▁checkState	-13.5889
▁createFile	-13.5889
▁forClass	-13.5889
▁getExtentSize	-13.5889
▁instantiate	-13.5889
▁isBorderPainted	-13.5889
▁ity	-13.5889
▁makeIcon	-13.5889
▁non	-13.5889
▁resetSyntax	-13.5889
▁setDropTarget	-13.5889
▁CompletedEvent	-13.5954
▁Deleg	-13.5954
▁Digit	-13.5954
▁Push	-13.5954
▁TextFont	-13.5954
▁TextMeasurer	-13.5954
▁cur	-13.5954
▁currentManager	-13.5954
▁engineDoFinal	-13.5954
▁ge	-13.5954
▁generateCRL	-13.5954
▁getBankData	-13.5954
▁getEn	-13.5954
▁getTaskCount	-13.5954
▁getWindingRule	-13.5954
▁orizationID	-13.5954
▁setDelay	-13.5954
▁setDisabled	-13.5954
▁variant	-13.5954
▁Constraint	-13.6019
▁Delay	-13.6019
▁HandlerImpl	-13.6019
▁NonNull	-13.6019
▁Release	-13.6019
▁Resources	-13.6019
▁StackTraces	-13.6019
▁Validation	-13.6019
▁changedUpdate	-13.6019
▁getGreens	-13.6019
▁getMaximumValue	-13.6019
▁isIconifiable	-13.6019
▁,?>)</t>	-13.6084
▁Attr	-13.6084
▁Mod	-13.6084
▁SearchPath	-13.6084
▁addTableModel	-13.6084
▁copyAttributes	-13.6084
▁createR	-13.6084
▁getBlues	-13.6084
▁getFrame	-13.6084
▁getReds	-13.6084
▁getTar	-13.6084
▁hasNextDouble	-13.6084
▁link	-13.6084
▁setBeginIndex	-13.6084
▁setBold	-13.6084
▁Application	-13.615
▁AudioClip	-13.615
▁Body	-13.615
▁RMIClient	-13.615
▁StateReason	-13.615
▁WriterSpi	-13.615
▁createElement	-13.615
▁fillArc	-13.615
▁getDividerSize	-13.615
▁getInset	-13.615
▁getNumberOf	-13.615
▁isBorderOpaque	-13.615
▁putU	-13.615
▁setDisabledIcon	-13.615
▁Alt	-13.6217
▁AsciiStream	-13.6217
▁AxisRequirements	-13.6217
▁BasicTextUITest	-13.6217
▁EntryIterator	-13.6217
▁ForKeyStroke	-13.6217
▁LayoutIterator	-13.6217
▁Plain	-13.6217
▁UIComponentBase	-13.6217
▁assertValues	-13.6217
▁getMenuCount	-13.6217
▁getUnitIncrement	-13.6217
▁ics	-13.6217
▁isBridge	-13.6217
▁isTemporary	-13.6217
▁setArc	-13.6217
▁usePattern	-13.6217
▁BatchUpdate	-13.6284
▁Ctx	-13.6284
▁Quoted	-13.6284
▁Rollover	-13.6284
▁getEmptySet	-13.6284
▁getMemory	-13.6284
▁isDesktop	-13.6284
▁isMalformed	-13.6284
▁lo	-13.6284
▁sViewportHeight	-13.6284
▁AclEntry	-13.6351
▁AttributeChange	-13.6351
▁Expanded	-13.6351
▁FromGeneric	-13.6351
▁HashEntry	-13.6351
▁JTextPaneTest	-13.6351
▁NoClientCode	-13.6351
▁SOAPException	-13.6351
▁SocksSocketImpl	-13.6351
▁Wait	-13.6351
▁checkOpen	-13.6351
▁ence	-13.6351
▁getBindings	-13.6351
▁getPeerHost	-13.6351
▁getViewSize	-13.6351
▁isAcceptable	-13.6351
▁isCanceled	-13.6351
▁isDefault	-13.6351
▁movePointRight	-13.6351
▁os	-13.6351
▁setAutoDelay	-13.6351
▁BCSSChild	-13.6419
▁GL	-13.6419
▁IIO	-13.6419
▁Rules	-13.6419
▁Str	-13.6419
▁Than	-13.6419
▁charsWidth	-13.6419
▁eq	-13.6419
▁event	-13.6419
▁getRollover	-13.6419
▁reduce	-13.6419
▁setValues	-13.6419
▁ContentTypeFrom	-13.6487
▁FieldUpdaterImpl	-13.6487
▁NullCipher	-13.6487
▁Out	-13.6487
▁Paragraph	-13.6487
▁Rep	-13.6487
▁Subset	-13.6487
▁ToRight	-13.6487
▁TransactionId	-13.6487
▁Unavailable	-13.6487
▁WaitStatus	-13.6487
▁checkNotClosed	-13.6487
▁getEnclosed	-13.6487
▁getIdentifier	-13.6487
▁isDesignTime	-13.6487
▁output	-13.6487
▁parameter	-13.6487
▁setURL	-13.6487
▁systemRoot	-13.6487
▁BoundException	-13.6556
▁Cont	-13.6556
▁LookAndFeels	-13.6556
▁Month	-13.6556
▁NClob	-13.6556
▁Quality	-13.6556
▁dump	-13.6556
▁esc	-13.6556
▁esentationName	-13.6556
▁extract	-13.6556
▁getRunStart	-13.6556
▁getTypeMap	-13.6556
▁ign	-13.6556
▁isUnderline	-13.6556
▁setDefaultUn	-13.6556
▁setGlassPane	-13.6556
▁setURIResolver	-13.6556
▁signed	-13.6556
▁BitStride	-13.6625
▁DualStack	-13.6625
▁Head	-13.6625
▁Mapper	-13.6625
▁MetalToolBarUI	-13.6625
▁OptionListModel	-13.6625
▁SynthUI	-13.6625
▁ThreadCount	-13.6625
▁commitEdit	-13.6625
▁drawGlyphVector	-13.6625
▁getBank	-13.6625
▁getMatch	-13.6625
▁getNotBefore	-13.6625
▁isAutoIncrement	-13.6625
▁preConcatenate	-13.6625
▁removeTabAt	-13.6625
▁setArray	-13.6625
▁setLayer	-13.6625
▁updateClob	-13.6625
▁writeControlWord	-13.6625
▁AlternativeNames	-13.6695
▁CallSite	-13.6695
▁ElementFilter	-13.6695
▁MenuItemUI	-13.6695
▁MetalTreeUI	-13.6695
▁PSS	-13.6695
▁Sta	-13.6695
▁fail	-13.6695
▁getFormatted	-13.6695
▁import	-13.6695
▁led	-13.6695
▁moveToFront	-13.6695
▁setComment	-13.6695
▁setEndIndex	-13.6695
▁setRes	-13.6695
▁setTo	-13.6695
▁32	-13.6765
▁9	-13.6765
▁Canceled	-13.6765
▁Card	-13.6765
▁DateTimeUtil	-13.6765
▁FileStore	-13.6765
▁LogicalMessage	-13.6765
▁Mapping	-13.6765
▁ParserDelegator	-13.6765
▁Pixels	-13.6765
▁Transfer	-13.6765
▁eration	-13.6765
▁getAd	-13.6765
▁getAllFrames	-13.6765
▁getNative	-13.6765
▁jjStartNfa	-13.6765
▁setColumnCount	-13.6765
▁setThrown	-13.6765
▁PagedResults	-13.6836
▁Print	-13.6836
▁Resolved	-13.6836
▁SSLContextSpi	-13.6836
▁Tar	-13.6836
▁asLongBuffer	-13.6836
▁ationPermission	-13.6836
▁bound	-13.6836
▁ct	-13.6836
▁defaulted	-13.6836
▁getCon	-13.6836
▁getPacket	-13.6836
▁imize	-13.6836
▁sink	-13.6836
▁succ	-13.6836
▁updateBlob	-13.6836
▁CardTerminal	-13.6907
▁DynamicUtil	-13.6907
▁Editing	-13.6907
▁IMTest	-13.6907
▁MediaSizeName	-13.6907
▁Pa	-13.6907
▁RadioButton	-13.6907
▁Replace	-13.6907
▁ViewTest	-13.6907
▁baseIsLeft	-13.6907
▁charset	-13.6907
▁collapsePath	-13.6907
▁ev	-13.6907
▁fulObject	-13.6907
▁getComment	-13.6907
▁getCurrencyCode	-13.6907
▁getDOMI	-13.6907
▁getUnresolved	-13.6907
▁hasNextFloat	-13.6907
▁pro	-13.6907
▁rhs	-13.6907
▁setRoot	-13.6907
▁Bit	-13.6979
▁ColorType	-13.6979
▁ModelEvent	-13.6979
▁Occurrence	-13.6979
▁PrintServices	-13.6979
▁SplashScreen	-13.6979
▁SynthButtonUI	-13.6979
▁ect	-13.6979
▁getCurve	-13.6979
▁getQueuedThreads	-13.6979
▁getTimezone	-13.6979
▁higher	-13.6979
▁isPr	-13.6979
▁setPublicKey	-13.6979
▁terminal	-13.6979
▁Dos	-13.7051
▁Gui	-13.7051
▁Mailcap	-13.7051
▁MarshallerImpl	-13.7051
▁Special	-13.7051
▁States	-13.7051
▁TabSet	-13.7051
▁addHighlight	-13.7051
▁findComponentAt	-13.7051
▁getMixer	-13.7051
▁getPrimaryKeys	-13.7051
▁getWaiting	-13.7051
▁jjCheckNAdd	-13.7051
▁key	-13.7051
▁newElementArray	-13.7051
▁newReference	-13.7051
▁ost	-13.7051
▁setCorePoolSize	-13.7051
▁setHead	-13.7051
▁updateN	-13.7051
▁Cert	-13.7123
▁CheckedMap	-13.7123
▁ElementScanner	-13.7123
▁FilterWriter	-13.7123
▁Many	-13.7123
▁PanelUI	-13.7123
▁PlainDatagram	-13.7123
▁Tracer	-13.7123
▁blockClose	-13.7123
▁cache	-13.7123
▁edPropertyType	-13.7123
▁ended	-13.7123
▁getDefaultText	-13.7123
▁getEndPoint	-13.7123
▁getNumberWaiting	-13.7123
▁getTick	-13.7123
▁nameUUIDFrom	-13.7123
▁sableFileFilters	-13.7123
▁setDictionary	-13.7123
▁setFixedLength	-13.7123
▁stringToValue	-13.7123
▁strip	-13.7123
▁4(	-13.7197
▁BinaryRefAddr	-13.7197
▁Custom	-13.7197
▁FileTime	-13.7197
▁ForContentType	-13.7197
▁JEditorPaneTest	-13.7197
▁KeyManagement	-13.7197
▁MotionListeners	-13.7197
▁SessionContext	-13.7197
▁Symbol	-13.7197
▁TranslateX	-13.7197
▁TranslateY	-13.7197
▁TypeName	-13.7197
▁User	-13.7197
▁VetoException	-13.7197
▁addFault	-13.7197
▁ain	-13.7197
▁checkSetFactory	-13.7197
▁econd	-13.7197
▁getLeftInset	-13.7197
▁getOperating	-13.7197
▁getSubsampling	-13.7197
▁getTextLength	-13.7197
▁getThumbSize	-13.7197
▁nextEntry	-13.7197
▁sFrom	-13.7197
▁setApproveButton	-13.7197
▁setFontSize	-13.7197
▁toGMTString	-13.7197
▁writeStatement	-13.7197
▁Authority	-13.727
▁Division	-13.727
▁HtmlSelect	-13.727
▁References	-13.727
▁SignatureMethod	-13.727
▁ample	-13.727
▁blockOpen	-13.727
▁getEditingRow	-13.727
▁getListenerCount	-13.727
▁getPaintTicks	-13.727
▁ignedInfo	-13.727
▁readUnsignedInt	-13.727
▁setCalendar	-13.727
▁setSamples	-13.727
▁ure	-13.727
▁64.	-13.7345
▁DigestException	-13.7345
▁Gap	-13.7345
▁Shift	-13.7345
▁Verifier	-13.7345
▁class	-13.7345
▁ec	-13.7345
▁findResources	-13.7345
▁getAvailableIDs	-13.7345
▁getBranch	-13.7345
▁getChecksum	-13.7345
▁getComp	-13.7345
▁getPathToRoot	-13.7345
▁getTotalSpace	-13.7345
▁ightWeightPopup	-13.7345
▁ine	-13.7345
▁removeRange	-13.7345
▁setLogWriter	-13.7345
▁setPressedIcon	-13.7345
▁ActionException	-13.742
▁ButtonListener	-13.742
▁ChannelGroup	-13.742
▁Entries	-13.742
▁JceSecurity	-13.742
▁Low	-13.742
▁TextFieldUI	-13.742
▁Tool	-13.742
▁UnmodifiableMap	-13.742
▁ab	-13.742
▁getAllThreadIds	-13.742
▁getBaseLevel	-13.742
▁getMembers	-13.742
▁getReturning	-13.742
▁getRowBounds	-13.742
▁hasInitial	-13.742
▁ired	-13.742
▁loadFromXML	-13.742
▁object	-13.742
▁setCoalescing	-13.742
▁setEditorKit	-13.742
▁setTrafficClass	-13.742
▁Creation	-13.7495
▁FieldDelegate	-13.7495
▁Game	-13.7495
▁HTMLWriterTest	-13.7495
▁Magnitude	-13.7495
▁Mis	-13.7495
▁PartOf	-13.7495
▁approveSelection	-13.7495
▁ask	-13.7495
▁createAction	-13.7495
▁definePackage	-13.7495
▁getExp	-13.7495
▁handleElement	-13.7495
▁ilationMXBean	-13.7495
▁ition	-13.7495
▁setExpert	-13.7495
▁setLoginTimeout	-13.7495
▁setScroll	-13.7495
▁setXIncludeAware	-13.7495
▁ul	-13.7495
▁writeProcessing	-13.7495
▁Aborted	-13.7571
▁ActiveException	-13.7571
▁QualifierInfo	-13.7571
▁RSAPublicKey	-13.7571
▁[][])</t>	-13.7571
▁asEndElement	-13.7571
▁generic	-13.7571
▁getLink	-13.7571
▁getOutputSize	-13.7571
▁getZone	-13.7571
▁incrIndent	-13.7571
▁prepareRenderer	-13.7571
▁setClosable	-13.7571
▁setGlobal	-13.7571
▁setMonth	-13.7571
▁showInternal	-13.7571
▁BoundsListener	-13.7648
▁CaretEvent	-13.7648
▁FactoryBuilder	-13.7648
▁KeyInfo	-13.7648
▁Pass	-13.7648
▁Pl	-13.7648
▁Tiles	-13.7648
▁ZOrder	-13.7648
▁acquireShared	-13.7648
▁ction	-13.7648
▁getBreakWeight	-13.7648
▁getDirContext	-13.7648
▁hasQueuedThread	-13.7648
▁ie	-13.7648
▁isValidCodePoint	-13.7648
▁isWrapperFor	-13.7648
▁setInitial	-13.7648
▁setTimeToLive	-13.7648
▁su	-13.7648
▁ButtonBorder	-13.7725
▁DeflaterHuffman	-13.7725
▁ParameterList	-13.7725
▁ProductVersion	-13.7725
▁RescaleOp	-13.7725
▁SplitPaneDivider	-13.7725
▁Tags	-13.7725
▁Tracking	-13.7725
▁ValidateContext	-13.7725
▁deltaTransform	-13.7725
▁exportObject	-13.7725
▁getContextPeer	-13.7725
▁getDSTSavings	-13.7725
▁getDelegatedTask	-13.7725
▁getFirstIndex	-13.7725
▁getHoldCount	-13.7725
▁getKeyUsage	-13.7725
▁isIndeterminate	-13.7725
▁isTraversable	-13.7725
▁setIssuer	-13.7725
▁setTab	-13.7725
▁throw	-13.7725
▁trailing	-13.7725
▁Descending	-13.7803
▁EditorPaneUI	-13.7803
▁Invocable	-13.7803
▁LineEvent	-13.7803
▁ModifiersText	-13.7803
▁NamingEvent	-13.7803
▁Raw	-13.7803
▁RootView	-13.7803
▁UtilitiesTest	-13.7803
▁bs	-13.7803
▁checkType	-13.7803
▁getAngleExtent	-13.7803
▁getAngleStart	-13.7803
▁getDerivedGauge	-13.7803
▁getEventSet	-13.7803
▁getLastRow	-13.7803
▁getNew	-13.7803
▁getPointSize	-13.7803
▁getProfile	-13.7803
▁getReadLockCount	-13.7803
▁mouseEntered	-13.7803
▁oot	-13.7803
▁ore	-13.7803
▁raw	-13.7803
▁selectNow	-13.7803
▁setCertificate	-13.7803
▁usingOcean	-13.7803
▁Addressing	-13.7881
▁Commit	-13.7881
▁ECKey	-13.7881
▁EventTime	-13.7881
▁LookupOp	-13.7881
▁NameLength	-13.7881
▁are	-13.7881
▁cellSpacing	-13.7881
▁getHeaderRect	-13.7881
▁getQueryTimeout	-13.7881
▁getTypeElement	-13.7881
▁getTypeName	-13.7881
▁imageComplete	-13.7881
▁indexOfTab	-13.7881
▁openSelector	-13.7881
▁setFormat	-13.7881
▁4.	-13.796
▁AccessibleObject	-13.796
▁Com	-13.796
▁Factories	-13.796
▁NetworkChannel	-13.796
▁ShapeProducer	-13.796
▁Spec	-13.796
▁Tables	-13.796
▁Tr	-13.796
▁VM	-13.796
▁editingStopped	-13.796
▁fullCheck	-13.796
▁getClassContext	-13.796
▁getFiler	-13.796
▁getHoldability	-13.796
▁getLowestSetBit	-13.796
▁ical	-13.796
▁isBefore	-13.796
▁isQueued	-13.796
▁predecessor	-13.796
▁setError	-13.796
▁setFontFamily	-13.796
▁setHoldability	-13.796
▁BlockingMode	-13.804
▁Fixed	-13.804
▁Flush	-13.804
▁Flushable	-13.804
▁Glyph	-13.804
▁Handle	-13.804
▁Issuers	-13.804
▁LocalizedPattern	-13.804
▁OR	-13.804
▁Positive	-13.804
▁ThreadContention	-13.804
▁ToByteBuffer	-13.804
▁TrackListener	-13.804
▁Traversable	-13.804
▁calculateTab	-13.804
▁displayName	-13.804
▁edImageSource	-13.804
▁egorianChange	-13.804
▁getChoo	-13.804
▁getStartPoint	-13.804
▁isLenient	-13.804
▁isThreadCpuTime	-13.804
▁itch	-13.804
▁saveChanges	-13.804
▁setToTranslation	-13.804
▁ClassValue	-13.812
▁ColumnModelTest	-13.812
▁DHPublicKey	-13.812
▁DHPublicKeySpec	-13.812
▁Day	-13.812
▁InvalidMidi	-13.812
▁JComponentTest	-13.812
▁LocalDateTime	-13.812
▁Messages	-13.812
▁NodeDimensions	-13.812
▁SynthTableUI	-13.812
▁ThumbSize	-13.812
▁Undo	-13.812
▁Win	-13.812
▁addHyperlink	-13.812
▁checkProperty	-13.812
▁createDirectory	-13.812
▁getAuto	-13.812
▁getFormatId	-13.812
▁getLockOwnerId	-13.812
▁getNorthPane	-13.812
▁getNumGlyphs	-13.812
▁getRole	-13.812
▁getViewFactory	-13.812
▁isMixed	-13.812
▁isRightToLeft	-13.812
▁ityType	-13.812
▁null	-13.812
▁paintTabbedPane	-13.812
▁startDrag	-13.812
▁Consumer	-13.8201
▁Encoded	-13.8201
▁EventType	-13.8201
▁Midi	-13.8201
▁OIDs	-13.8201
▁Put	-13.8201
▁addInternalFrame	-13.8201
▁addTo	-13.8201
▁eolIsSignificant	-13.8201
▁getDataBitOffset	-13.8201
▁getRootFrame	-13.8201
▁getSalt	-13.8201
▁getWeekdays	-13.8201
▁mouseDragged	-13.8201
▁rop	-13.8201
▁selector	-13.8201
▁setChunked	-13.8201
▁uninstallBorder	-13.8201
▁Anchor	-13.8283
▁Be	-13.8283
▁CSSValue	-13.8283
▁Gradient	-13.8283
▁JPEG	-13.8283
▁LayoutPolicy	-13.8283
▁MXBeanProxy	-13.8283
▁MinorVersion	-13.8283
▁Modal	-13.8283
▁SQLNonTransient	-13.8283
▁SQLXML	-13.8283
▁SelectionAction	-13.8283
▁afterOffset	-13.8283
▁belongs	-13.8283
▁copySign	-13.8283
▁defineElement	-13.8283
▁getCalendar	-13.8283
▁getExt	-13.8283
▁getJ	-13.8283
▁getMaxPriority	-13.8283
▁getSchemaName	-13.8283
▁getTabRun	-13.8283
▁getTcpNoDelay	-13.8283
▁ial	-13.8283
▁isFieldSet	-13.8283
▁isFileSystem	-13.8283
▁isFlagSet	-13.8283
▁isRoot	-13.8283
▁isRootPane	-13.8283
▁mouseMoved	-13.8283
▁ote	-13.8283
▁replaceRange	-13.8283
▁setIconifiable	-13.8283
▁updateSize	-13.8283
▁Ac	-13.8365
▁Bad	-13.8365
▁Baseline	-13.8365
▁DataElements	-13.8365
▁DefaultSingle	-13.8365
▁ExceptionTypes	-13.8365
▁Extended	-13.8365
▁FileSystems	-13.8365
▁ForInput	-13.8365
▁IdentifierStart	-13.8365
▁Only	-13.8365
▁Strings	-13.8365
▁absolutePath	-13.8365
▁base	-13.8365
▁getCached	-13.8365
▁getCrc	-13.8365
▁getKeepAlive	-13.8365
▁getProgram	-13.8365
▁getSeparator	-13.8365
▁row	-13.8365
▁BidiTest	-13.8448
▁Comment	-13.8448
▁CookieHandler	-13.8448
▁DigitList	-13.8448
▁Existing	-13.8448
▁ExpiredException	-13.8448
▁Lines	-13.8448
▁ListLayouter	-13.8448
▁Listening	-13.8448
▁NonWritable	-13.8448
▁PlainViewI	-13.8448
▁Public	-13.8448
▁StrokedShape	-13.8448
▁TextTokenizer	-13.8448
▁WeightPopup	-13.8448
▁WithParent	-13.8448
▁Zero	-13.8448
▁calc	-13.8448
▁checkMod	-13.8448
▁copyArea	-13.8448
▁createDate	-13.8448
▁getConcurrency	-13.8448
▁getExponent	-13.8448
▁getJavaFile	-13.8448
▁isCritical	-13.8448
▁isTerminating	-13.8448
▁oke	-13.8448
▁paintToolBar	-13.8448
▁setByteOrder	-13.8448
▁setFrameFrom	-13.8448
▁setH	-13.8448
▁Click	-13.8532
▁EditorClass	-13.8532
▁KeyIterator	-13.8532
▁SQLTransient	-13.8532
▁ToolTip	-13.8532
▁UnitIncrement	-13.8532
▁ZoneRules	-13.8532
▁back	-13.8532
▁debugPrintln	-13.8532
▁erse	-13.8532
▁getAxis	-13.8532
▁getController	-13.8532
▁iff	-13.8532
▁ner	-13.8532
▁newPlatform	-13.8532
▁plus	-13.8532
▁pp	-13.8532
▁prestart	-13.8532
▁setMillis	-13.8532
▁setNextException	-13.8532
▁tableChanged	-13.8532
▁toMinutes	-13.8532
▁zero	-13.8532
▁0	-13.8616
▁Async	-13.8616
▁BindingEvent	-13.8616
▁Chooser	-13.8616
▁Constant	-13.8616
▁ConversionMis	-13.8616
▁DynamicMBean	-13.8616
▁FormActionTest	-13.8616
▁FormatFlags	-13.8616
▁MetalComboBoxUI	-13.8616
▁Resizable	-13.8616
▁UIData	-13.8616
▁URISyntax	-13.8616
▁allKeys	-13.8616
▁child	-13.8616
▁completeEditing	-13.8616
▁createWritable	-13.8616
▁endpoint	-13.8616
▁getAppletContext	-13.8616
▁getAttachments	-13.8616
▁getClientInfo	-13.8616
▁getDefaultName	-13.8616
▁getItemListeners	-13.8616
▁getPositive	-13.8616
▁getShortWeekdays	-13.8616
▁getSub	-13.8616
▁getThreadCpuTime	-13.8616
▁isUnmappable	-13.8616
▁openOutputStream	-13.8616
▁refresh	-13.8616
▁setTitleAt	-13.8616
▁storesLowerCase	-13.8616
▁updateNClob	-13.8616
▁14	-13.8701
▁DSAPublicKey	-13.8701
▁DeltaListTest	-13.8701
▁Introspection	-13.8701
▁Leg	-13.8701
▁Pre	-13.8701
▁RSAPrivateKey	-13.8701
▁Struct	-13.8701
▁activate	-13.8701
▁checkNcss	-13.8701
▁clearPassword	-13.8701
▁disjoint	-13.8701
▁getConfiguration	-13.8701
▁getDisplayMode	-13.8701
▁getEncodedValue	-13.8701
▁inner	-13.8701
▁isTitleCase	-13.8701
▁isUserNode	-13.8701
▁iv	-13.8701
▁removeFrom	-13.8701
▁shouldUpdate	-13.8701
▁translatePoint	-13.8701
▁uto	-13.8701
▁AttributeContext	-13.8787
▁ClassicTagBase	-13.8787
▁ColumnCount	-13.8787
▁ContextFinder	-13.8787
▁FlashAction	-13.8787
▁JListTest	-13.8787
▁JTreeTest	-13.8787
▁MimeHeader	-13.8787
▁SSLPeer	-13.8787
▁StringWidth	-13.8787
▁Unverified	-13.8787
▁Visibility	-13.8787
▁arge	-13.8787
▁checkServer	-13.8787
▁descendingKeySet	-13.8787
▁edWindow	-13.8787
▁em	-13.8787
▁getKeyStore	-13.8787
▁getMidiDevice	-13.8787
▁getMixerInfo	-13.8787
▁getSourceX	-13.8787
▁intersectsLine	-13.8787
▁izationMethod	-13.8787
▁izer	-13.8787
▁menu	-13.8787
▁mouseExited	-13.8787
▁oo	-13.8787
▁setExtent	-13.8787
▁too	-13.8787
▁Backward	-13.8874
▁Done	-13.8874
▁Exceeded	-13.8874
▁ThreadLocalMap	-13.8874
▁clearBit	-13.8874
▁endedKeyUsage	-13.8874
▁getBitDepth	-13.8874
▁getClassFile	-13.8874
▁getColumnHeader	-13.8874
▁getInter	-13.8874
▁getMajor	-13.8874
▁getSchemas	-13.8874
▁getSourceY	-13.8874
▁isAddedPath	-13.8874
▁isDescendingFrom	-13.8874
▁isInsert	-13.8874
▁loc	-13.8874
▁old	-13.8874
▁processWarning	-13.8874
▁setDecimal	-13.8874
▁shared	-13.8874
▁yn	-13.8874
▁yytext	-13.8874
▁AlreadyNotified	-13.8961
▁FailedAcquire	-13.8961
▁Overri	-13.8961
▁ShutdownPolicy	-13.8961
▁Statics	-13.8961
▁TasksAfter	-13.8961
▁Tile	-13.8961
▁ViewportUI	-13.8961
▁acquireQueued	-13.8961
▁addWaiter	-13.8961
▁createChild	-13.8961
▁edicate	-13.8961
▁findStatic	-13.8961
▁getDimension	-13.8961
▁getDropTarget	-13.8961
▁getLogWriter	-13.8961
▁getTrack	-13.8961
▁getc	-13.8961
▁isInherited	-13.8961
▁isOnSyncQueue	-13.8961
▁member	-13.8961
▁printDebugInfo	-13.8961
▁setTopComponent	-13.8961
▁shouldParkAfter	-13.8961
▁solve	-13.8961
▁transfer	-13.8961
▁uses	-13.8961
▁CheckedEntrySet	-13.9049
▁DH	-13.9049
▁ExclusionType	-13.9049
▁FolderIcon	-13.9049
▁Periodic	-13.9049
▁agic	-13.9049
▁callable	-13.9049
▁discard	-13.9049
▁getDigest	-13.9049
▁getInsideBorder	-13.9049
▁getLastComponent	-13.9049
▁getPublicId	-13.9049
▁getSigAlgName	-13.9049
▁getTransparent	-13.9049
▁getUndo	-13.9049
▁getUnitsToScroll	-13.9049
▁isInstanceOf	-13.9049
▁ory	-13.9049
▁releaseSavepoint	-13.9049
▁setCorner	-13.9049
▁setException	-13.9049
▁startEditing	-13.9049
▁translateKey	-13.9049
▁valueToString	-13.9049
▁ButtonUI	-13.9138
▁Datagram	-13.9138
▁Descendants	-13.9138
▁FormatConversion	-13.9138
▁Identifier	-13.9138
▁Keyword	-13.9138
▁PackageElement	-13.9138
▁SynthComboBoxUI	-13.9138
▁Vis	-13.9138
▁composeName	-13.9138
▁egative	-13.9138
▁flags	-13.9138
▁getCatalogName	-13.9138
▁getDragEnabled	-13.9138
▁getEvents	-13.9138
▁getMediaSize	-13.9138
▁getMessageType	-13.9138
▁invalidateLayout	-13.9138
▁isAllocation	-13.9138
▁isFocusPainted	-13.9138
▁isNode	-13.9138
▁itemStateChanged	-13.9138
▁ization	-13.9138
▁setItem	-13.9138
▁Any	-13.9228
▁BCSSCService	-13.9228
▁Canonical	-13.9228
▁DocAttributeSet	-13.9228
▁FromScreen	-13.9228
▁IndexInterval	-13.9228
▁Indexed	-13.9228
▁PropertyNames	-13.9228
▁ThreadTest	-13.9228
▁Waiter	-13.9228
▁ance	-13.9228
▁editingCanceled	-13.9228
▁extend	-13.9228
▁fireTree	-13.9228
▁getInputSource	-13.9228
▁getPITarget	-13.9228
▁getPage	-13.9228
▁getTypeUtils	-13.9228
▁getZeroDigit	-13.9228
▁isContent	-13.9228
▁isDestroyed	-13.9228
▁isExpert	-13.9228
▁newInputStream	-13.9228
▁registerDriver	-13.9228
▁reshape	-13.9228
▁setMaxFieldSize	-13.9228
▁visible	-13.9228
▁Capable	-13.9318
▁ClassPool	-13.9318
▁ColorPainter	-13.9318
▁ControlShadow	-13.9318
▁Edits	-13.9318
▁FormatNames	-13.9318
▁LabelViewTest	-13.9318
▁MembershipEvent	-13.9318
▁Midnight	-13.9318
▁RowView	-13.9318
▁Soundbank	-13.9318
▁Su	-13.9318
▁Super	-13.9318
▁beginHandshake	-13.9318
▁deepHashCode	-13.9318
▁exclusiveCount	-13.9318
▁forLanguageTag	-13.9318
▁getFlavor	-13.9318
▁getInit	-13.9318
▁getMaxFieldSize	-13.9318
▁getMinusSign	-13.9318
▁getNString	-13.9318
▁getServices	-13.9318
▁getTypeArguments	-13.9318
▁ick	-13.9318
▁isLocalClass	-13.9318
▁isSame	-13.9318
▁lowerKey	-13.9318
▁movePointLeft	-13.9318
▁newJComponent	-13.9318
▁newOutputStream	-13.9318
▁newXML	-13.9318
▁ounded	-13.9318
▁setLabelTable	-13.9318
▁Angle	-13.941
▁AsString	-13.941
▁Below	-13.941
▁Break	-13.941
▁Choo	-13.941
▁Coord	-13.941
▁Definitions	-13.941
▁Hint	-13.941
▁InitialState	-13.941
▁InputContext	-13.941
▁JavaFileObjects	-13.941
▁QLXML	-13.941
▁Reflection	-13.941
▁SSLHandshake	-13.941
▁SecretKeyEntry	-13.941
▁US	-13.941
▁ableSession	-13.941
▁addHeaderElement	-13.941
▁firstEntry	-13.941
▁floorEntry	-13.941
▁ges	-13.941
▁getAcceptAll	-13.941
▁getDefaultFocus	-13.941
▁getHandlerChain	-13.941
▁getInstalled	-13.941
▁getMicrosecond	-13.941
▁getOwnedWindows	-13.941
▁getPrimaryType	-13.941
▁getRowHeader	-13.941
▁getSOAPHeader	-13.941
▁getScope	-13.941
▁getScreenInsets	-13.941
▁getThreadCount	-13.941
▁isCompatible	-13.941
▁isShared	-13.941
▁ject	-13.941
▁ra	-13.941
▁restore	-13.941
▁safe	-13.941
▁setBottom	-13.941
▁tabForCoordinate	-13.941
▁token	-13.941
▁writeDefault	-13.941
▁Align	-13.9502
▁ClassDescriptor	-13.9502
▁Cor	-13.9502
▁DNSIncoming	-13.9502
▁DeltaStateHelper	-13.9502
▁Inhibited	-13.9502
▁MLet	-13.9502
▁MenuUI	-13.9502
▁Repaint	-13.9502
▁Seek	-13.9502
▁SliderThumbIcon	-13.9502
▁SynthTreeUI	-13.9502
▁TextOutput	-13.9502
▁TreeInfo	-13.9502
▁Violation	-13.9502
▁WriteParam	-13.9502
▁ctor	-13.9502
▁getAncestor	-13.9502
▁getDrawGraphics	-13.9502
▁getFocusColor	-13.9502
▁getLabelTable	-13.9502
▁getPrint	-13.9502
▁getRemaining	-13.9502
▁halt	-13.9502
▁mp	-13.9502
▁sAreVisible	-13.9502
▁setChar	-13.9502
▁setCommand	-13.9502
▁setExclusive	-13.9502
▁setRange	-13.9502
▁toShortString	-13.9502
▁ChildIndent	-13.9595
▁Cl	-13.9595
▁CollationKey	-13.9595
▁Constants	-13.9595
▁DataModel	-13.9595
▁Finder	-13.9595
▁FlavorMap	-13.9595
▁Focusable	-13.9595
▁IPv	-13.9595
▁Initialized	-13.9595
▁Me	-13.9595
▁Processing	-13.9595
▁SimpleBindings	-13.9595
▁addHeader	-13.9595
▁bit	-13.9595
▁commentChar	-13.9595
▁doSort	-13.9595
▁getAccepted	-13.9595
▁getDefaultLocale	-13.9595
▁getInsert	-13.9595
▁getLoginTimeout	-13.9595
▁getMinValue	-13.9595
▁getPIData	-13.9595
▁getRawScheme	-13.9595
▁getRowSorter	-13.9595
▁getSystemTray	-13.9595
▁getWindowTitle	-13.9595
▁ia	-13.9595
▁ings	-13.9595
▁mit	-13.9595
▁nextAfter	-13.9595
▁over	-13.9595
▁sendMessage	-13.9595
▁setP	-13.9595
▁setSelectedColor	-13.9595
▁showStatus	-13.9595
▁ult	-13.9595
▁writeComment	-13.9595
▁5.	-13.9689
▁EmulatedFields	-13.9689
▁FileFormat	-13.9689
▁LabelUI	-13.9689
▁RM	-13.9689
▁Registration	-13.9689
▁ResizeBehavior	-13.9689
▁Resized	-13.9689
▁Rotate	-13.9689
▁StateReasons	-13.9689
▁TypeData	-13.9689
▁Zip	-13.9689
▁addAdjustment	-13.9689
▁addDetail	-13.9689
▁andalone	-13.9689
▁checkOffsets	-13.9689
▁contentsLost	-13.9689
▁createNClob	-13.9689
▁exchange	-13.9689
▁findMBeanServer	-13.9689
▁getEditingColumn	-13.9689
▁getFileView	-13.9689
▁getUIActionMap	-13.9689
▁getUserData	-13.9689
▁higherKey	-13.9689
▁leaveGroup	-13.9689
▁lection	-13.9689
▁ound	-13.9689
▁service	-13.9689
▁setCompressed	-13.9689
▁setHidden	-13.9689
▁setOffset	-13.9689
▁style	-13.9689
▁FD	-13.9784
▁ForOutput	-13.9784
▁ObjectFactory	-13.9784
▁Post	-13.9784
▁Predecessor	-13.9784
▁RTFParser	-13.9784
▁SSL	-13.9784
▁Se	-13.9784
▁SecureSet	-13.9784
▁StringCoding	-13.9784
▁Term	-13.9784
▁Unmappable	-13.9784
▁Verify	-13.9784
▁Viewport	-13.9784
▁ZoneRulesBuilder	-13.9784
▁addCaretListener	-13.9784
▁debugLog	-13.9784
▁getAdd	-13.9784
▁getBitMasks	-13.9784
▁getComponentSize	-13.9784
▁getDeepest	-13.9784
▁getDefaultUn	-13.9784
▁getFlag	-13.9784
▁getNormalized	-13.9784
▁getRawFragment	-13.9784
▁getRedo	-13.9784
▁isConnectable	-13.9784
▁isNative	-13.9784
▁lookupLink	-13.9784
▁setDrag	-13.9784
▁stInfo	-13.9784
▁with	-13.9784
▁Addresses	-13.9879
▁Initializer	-13.9879
▁Items	-13.9879
▁MBeanException	-13.9879
▁MetalComboBox	-13.9879
▁MethodArray	-13.9879
▁Previous	-13.9879
▁PropertyInfo	-13.9879
▁Relative	-13.9879
▁Singleton	-13.9879
▁Vert	-13.9879
▁bad	-13.9879
▁breakView	-13.9879
▁ce	-13.9879
▁checkStrains	-13.9879
▁getInterface	-13.9879
▁getJarFileURL	-13.9879
▁getMinimumValue	-13.9879
▁getRefreshRate	-13.9879
▁izes	-13.9879
▁ome	-13.9879
▁setClientInfo	-13.9879
▁setEncoding	-13.9879
▁setNString	-13.9879
▁updateMetrics	-13.9879
▁val	-13.9879
▁waitForID	-13.9879
▁BeanELResolver	-13.9976
▁Checkers	-13.9976
▁Combiner	-13.9976
▁Days	-13.9976
▁Externalizable	-13.9976
▁ProxyFactory	-13.9976
▁SchemasIn	-13.9976
▁StringMonitor	-13.9976
▁ceilingEntry	-13.9976
▁generateCRLs	-13.9976
▁getCh	-13.9976
▁getDrag	-13.9976
▁getGraphicsUtils	-13.9976
▁getKeymap	-13.9976
▁getLocalizedName	-13.9976
▁getNotifications	-13.9976
▁getResultSetType	-13.9976
▁getTrustedCert	-13.9976
▁imit	-13.9976
▁lastEntry	-13.9976
▁nextLayout	-13.9976
▁outh	-13.9976
▁setBase	-13.9976
▁7.	-14.0074
▁Ar	-14.0074
▁BufferInfo	-14.0074
▁BuilderTest	-14.0074
▁IDN	-14.0074
▁Inv	-14.0074
▁KeyAgreementSpi	-14.0074
▁MarkVector	-14.0074
▁Mnemonic	-14.0074
▁ModifiedSince	-14.0074
▁Shortcut	-14.0074
▁TL	-14.0074
▁Until	-14.0074
▁aisedBevelBorder	-14.0074
▁checkColRange	-14.0074
▁checkEvent	-14.0074
▁fference	-14.0074
▁floorKey	-14.0074
▁getBigInt	-14.0074
▁getFlow	-14.0074
▁getFrames	-14.0074
▁getIdentity	-14.0074
▁getSelectionRows	-14.0074
▁huffcodetab	-14.0074
▁isMCGlobal	-14.0074
▁moveColumn	-14.0074
▁paintScrollBar	-14.0074
▁preceding	-14.0074
▁res	-14.0074
▁setPrintable	-14.0074
▁Account	-14.0172
▁GrayFilter	-14.0172
▁InputVerifier	-14.0172
▁KindVisitor	-14.0172
▁Le	-14.0172
▁Loop	-14.0172
▁Old	-14.0172
▁Padding	-14.0172
▁Place	-14.0172
▁Repository	-14.0172
▁SAXResult	-14.0172
▁StackMap	-14.0172
▁active	-14.0172
▁addContainer	-14.0172
▁childAllocation	-14.0172
▁drawUn	-14.0172
▁ecute	-14.0172
▁emp	-14.0172
▁fireValueChanged	-14.0172
▁getCursorName	-14.0172
▁getExpandedState	-14.0172
▁getFrameIcon	-14.0172
▁getNear	-14.0172
▁getOld	-14.0172
▁getParameterType	-14.0172
▁nativeSQL	-14.0172
▁ode	-14.0172
▁opagate	-14.0172
▁selectedText	-14.0172
▁setTypeMap	-14.0172
▁vert	-14.0172
▁word	-14.0172
▁writeCData	-14.0172
▁Auto	-14.0272
▁CIEXYZ	-14.0272
▁DSAPrivateKey	-14.0272
▁EndTag	-14.0272
▁FileTransformer	-14.0272
▁IsLoggable	-14.0272
▁LTR	-14.0272
▁Literal	-14.0272
▁ServiceAvailable	-14.0272
▁TimerImpl	-14.0272
▁Unrecoverable	-14.0272
▁WatchEvent	-14.0272
▁WithStates	-14.0272
▁activeGroupCount	-14.0272
▁addMenuListener	-14.0272
▁checkConstructor	-14.0272
▁checkModify	-14.0272
▁eviewPanel	-14.0272
▁getDefaultButton	-14.0272
▁getDocumentBase	-14.0272
▁getDriverName	-14.0272
▁getLock	-14.0272
▁getLocked	-14.0272
▁getNextWarning	-14.0272
▁getNonH	-14.0272
▁getShadowColor	-14.0272
▁getUpdate	-14.0272
▁paintChildren	-14.0272
▁replacement	-14.0272
▁setCell	-14.0272
▁setTabPlacement	-14.0272
▁shear	-14.0272
▁storesUpperCase	-14.0272
▁Buf	-14.0372
▁Called	-14.0372
▁Expander	-14.0372
▁Feedback	-14.0372
▁LockInfo	-14.0372
▁Maker	-14.0372
▁ModelWrapper	-14.0372
▁Portable	-14.0372
▁ToolBarUI	-14.0372
▁Transaction	-14.0372
▁Unpacker	-14.0372
▁Waiters	-14.0372
▁XPathFunction	-14.0372
▁appendTo	-14.0372
▁box	-14.0372
▁createFileObject	-14.0372
▁createFont	-14.0372
▁focusGained	-14.0372
▁getDns	-14.0372
▁getFeature	-14.0372
▁getHTMLTag	-14.0372
▁getRedMask	-14.0372
▁getScrollType	-14.0372
▁getStartTime	-14.0372
▁insertTab	-14.0372
▁isAfter	-14.0372
▁lookahead	-14.0372
▁markValue	-14.0372
▁provideError	-14.0372
▁qu	-14.0372
▁setOOBInline	-14.0372
▁setThumb	-14.0372
▁slashStar	-14.0372
▁toMatchResult	-14.0372
▁3()</t>	-14.0474
▁AltName	-14.0474
▁BasicBlock	-14.0474
▁CC	-14.0474
▁ColumnIndexes	-14.0474
▁ComposedText	-14.0474
▁EventFilter	-14.0474
▁HashCode	-14.0474
▁HierarchyTest	-14.0474
▁ImageReaderSpi	-14.0474
▁LengthValue	-14.0474
▁MTOMFeature	-14.0474
▁Precision	-14.0474
▁TimeOut	-14.0474
▁ToolTipText	-14.0474
▁Underline	-14.0474
▁Unicode	-14.0474
▁drawTabbedText	-14.0474
▁getConnect	-14.0474
▁getConversion	-14.0474
▁getEx	-14.0474
▁isNamespaceAware	-14.0474
▁items	-14.0474
▁jectedEx	-14.0474
▁locale	-14.0474
▁navigate	-14.0474
▁setItalic	-14.0474
▁AcquireShared	-14.0576
▁AutoPreferredGap	-14.0576
▁Backing	-14.0576
▁BasicToolTipUI	-14.0576
▁Compressed	-14.0576
▁Connected	-14.0576
▁ControlInfo	-14.0576
▁Damage	-14.0576
▁Dea	-14.0576
▁Editable	-14.0576
▁Flag	-14.0576
▁Images	-14.0576
▁Inst	-14.0576
▁LinkRef	-14.0576
▁PrimitiveTypes	-14.0576
▁RandomAccessList	-14.0576
▁Rule	-14.0576
▁SB	-14.0576
▁SequenceNumber	-14.0576
▁Sq	-14.0576
▁Theme	-14.0576
▁Under	-14.0576
▁Vendor	-14.0576
▁actions	-14.0576
▁addHierarchy	-14.0576
▁byteArray	-14.0576
▁ceilingKey	-14.0576
▁checkClient	-14.0576
▁formance	-14.0576
▁getBlueMask	-14.0576
▁getBottom	-14.0576
▁getError	-14.0576
▁getGapEnd	-14.0576
▁getImageReader	-14.0576
▁getPaintLabels	-14.0576
▁getSh	-14.0576
▁getStart	-14.0576
▁getTopInset	-14.0576
▁isLine	-14.0576
▁isMCSiteLocal	-14.0576
▁isMiddle	-14.0576
▁maybe	-14.0576
▁ort	-14.0576
▁sRGB	-14.0576
▁slashSlash	-14.0576
▁toXMLFormat	-14.0576
▁10.	-14.068
▁Cast	-14.068
▁Center	-14.068
▁DateFormatter	-14.068
▁HeadIndex	-14.068
▁Hidden	-14.068
▁IntList	-14.068
▁LinkError	-14.068
▁MetalBumps	-14.068
▁Negative	-14.068
▁RBTableBuilder	-14.068
▁Rollback	-14.068
▁Safe	-14.068
▁TableTagView	-14.068
▁Unsatisfied	-14.068
▁XmlSchema	-14.068
▁avepoint	-14.068
▁canonicalize	-14.068
▁co	-14.068
▁distanceSq	-14.068
▁findNear	-14.068
▁fix	-14.068
▁getAlignmentX	-14.068
▁getCollationKey	-14.068
▁getElementName	-14.068
▁getFreeSpace	-14.068
▁getHastenedIcon	-14.068
▁getLocator	-14.068
▁getPeak	-14.068
▁getRdn	-14.068
▁inBounds	-14.068
▁isAn	-14.068
▁isComponent	-14.068
▁izingColumn	-14.068
▁needsDictionary	-14.068
▁ocFlavor	-14.068
▁ollowRedirects	-14.068
▁prepareImage	-14.068
▁serviceName	-14.068
▁setLog	-14.068
▁valueFor	-14.068
▁Aliases	-14.0784
▁Branch	-14.0784
▁ByteOffset	-14.0784
▁CharsetName	-14.0784
▁ClassPath	-14.0784
▁Contains	-14.0784
▁Declared	-14.0784
▁ImplicitObject	-14.0784
▁MGF	-14.0784
▁MarshalledObject	-14.0784
▁Solver	-14.0784
▁ZoneView	-14.0784
▁addCondition	-14.0784
▁calculateMaxTab	-14.0784
▁comp	-14.0784
▁daysInMonth	-14.0784
▁depth	-14.0784
▁ef	-14.0784
▁efficient	-14.0784
▁frequency	-14.0784
▁fullyRelease	-14.0784
▁getAttributeType	-14.0784
▁getCrossPlatform	-14.0784
▁getCrtCo	-14.0784
▁getDialogType	-14.0784
▁getMechanism	-14.0784
▁getNegative	-14.0784
▁getOutsideBorder	-14.0784
▁getRecord	-14.0784
▁getSecondary	-14.0784
▁getSourceActions	-14.0784
▁getTabLabelShift	-14.0784
▁isUsageThreshold	-14.0784
▁matchName	-14.0784
▁native	-14.0784
▁ob	-14.0784
▁outcode	-14.0784
▁readUnshared	-14.0784
▁setFault	-14.0784
▁setFlag	-14.0784
▁updateRenderer	-14.0784
▁AlwaysShown	-14.089
▁ConcreteListener	-14.089
▁DefaultHSB	-14.089
▁Elem	-14.089
▁InsertMiscTest	-14.089
▁InsertSeveral	-14.089
▁InsertTextTest	-14.089
▁MidiFileFormat	-14.089
▁NewLinesTest	-14.089
▁Parties	-14.089
▁PasswordField	-14.089
▁Phantom	-14.089
▁PreferredSize	-14.089
▁PublicMetal	-14.089
▁SS	-14.089
▁SerialArray	-14.089
▁TipText	-14.089
▁Warning	-14.089
▁ang	-14.089
▁assertAttributes	-14.089
▁checkMulticast	-14.089
▁code	-14.089
▁createEndElement	-14.089
▁getBandOffsets	-14.089
▁getCurrentPoint	-14.089
▁getFileSystem	-14.089
▁getFrom	-14.089
▁getGapStart	-14.089
▁getGreenMask	-14.089
▁getPatch	-14.089
▁getSearchScope	-14.089
▁getStateToBind	-14.089
▁getTrustAnchors	-14.089
▁invokeStatement	-14.089
▁isRequestFocus	-14.089
▁lookupClass	-14.089
▁napshot	-14.089
▁need	-14.089
▁ose	-14.089
▁putByteArray	-14.089
▁rapped	-14.089
▁removeItem	-14.089
▁rowUpdated	-14.089
▁setPosition	-14.089
▁setSelectedFiles	-14.089
▁setSelectedIcon	-14.089
▁setUnderline	-14.089
▁slowFilter	-14.089
▁suspend	-14.089
▁tri	-14.089
▁Call	-14.0997
▁Can	-14.0997
▁Delta	-14.0997
▁Fault	-14.0997
▁Highlights	-14.0997
▁InteropObject	-14.0997
▁KeyGeneratorSpi	-14.0997
▁LightWeightPopup	-14.0997
▁MediaEntry	-14.0997
▁NegativeArray	-14.0997
▁NotPresent	-14.0997
▁PeekInputStream	-14.0997
▁RTFAttribute	-14.0997
▁Stamp	-14.0997
▁SubjectTest	-14.0997
▁TabIndex	-14.0997
▁WindowsReg	-14.0997
▁ages	-14.0997
▁breadth	-14.0997
▁cedures	-14.0997
▁err	-14.0997
▁ess	-14.0997
▁getBytesWritten	-14.0997
▁getChangeFlags	-14.0997
▁getDeclaredType	-14.0997
▁getFiles	-14.0997
▁getImageReaders	-14.0997
▁getLargest	-14.0997
▁getPersistence	-14.0997
▁getShortMonths	-14.0997
▁getTextStart	-14.0997
▁getTop	-14.0997
▁ingMode	-14.0997
▁insertItemAt	-14.0997
▁isProperty	-14.0997
▁left	-14.0997
▁newReader	-14.0997
▁parseNumber	-14.0997
▁replaceWith	-14.0997
▁report	-14.0997
▁setBindings	-14.0997
▁setHeader	-14.0997
▁setT	-14.0997
▁ue	-14.0997
▁unlinkCancelled	-14.0997
▁FileNameMap	-14.1105
▁Hex	-14.1105
▁Hook	-14.1105
▁Implementation	-14.1105
▁MethodTypeForm	-14.1105
▁MonitorMBean	-14.1105
▁ShiftOffset	-14.1105
▁Th	-14.1105
▁Transactions	-14.1105
▁arrive	-14.1105
▁bablePrime	-14.1105
▁collapse	-14.1105
▁flipBit	-14.1105
▁focusLost	-14.1105
▁formatTo	-14.1105
▁getCalendarDate	-14.1105
▁getCharContent	-14.1105
▁getCharIndex	-14.1105
▁getEngine	-14.1105
▁getParser	-14.1105
▁getSyncProvider	-14.1105
▁getVm	-14.1105
▁ight	-14.1105
▁igned	-14.1105
▁isMCLinkLocal	-14.1105
▁isMCOrgLocal	-14.1105
▁newTransform	-14.1105
▁reate	-14.1105
▁recalculate	-14.1105
▁resizeAndRepaint	-14.1105
▁setCaretColor	-14.1105
▁setErrorListener	-14.1105
▁setRowSorter	-14.1105
▁setThumbBounds	-14.1105
▁shape	-14.1105
▁updateNull	-14.1105
▁verted	-14.1105
▁wsdlLocation	-14.1105
▁9.	-14.1215
▁AreVisible	-14.1215
▁AtIndex	-14.1215
▁CharClass	-14.1215
▁ColumnsFromModel	-14.1215
▁Decompressor	-14.1215
▁Encodings	-14.1215
▁Enter	-14.1215
▁FileImage	-14.1215
▁Instrument	-14.1215
▁Lightweight	-14.1215
▁ModalityType	-14.1215
▁More	-14.1215
▁OneTouch	-14.1215
▁OpenIcon	-14.1215
▁Packed	-14.1215
▁PainterInfo	-14.1215
▁Pointer	-14.1215
▁StateFaces	-14.1215
▁TOMEnabled	-14.1215
▁TextListener	-14.1215
▁Through	-14.1215
▁ValueIterator	-14.1215
▁XmlType	-14.1215
▁ceiling	-14.1215
▁checkText	-14.1215
▁fullyLock	-14.1215
▁getCollation	-14.1215
▁getDo	-14.1215
▁getFlatness	-14.1215
▁getHead	-14.1215
▁getMaxValue	-14.1215
▁getPaper	-14.1215
▁getRequestMethod	-14.1215
▁getRightInset	-14.1215
▁getSQLXML	-14.1215
▁getSentence	-14.1215
▁isUndecorated	-14.1215
▁mouseWheel	-14.1215
▁moveToCurrentRow	-14.1215
▁openInputStream	-14.1215
▁oscroll	-14.1215
▁rea	-14.1215
▁removeEditor	-14.1215
▁setCurrency	-14.1215
▁setDestination	-14.1215
▁unescapeValue	-14.1215
▁workerCountOf	-14.1215
▁writeExpression	-14.1215
▁ArgumentIndex	-14.1325
▁CatalogsIn	-14.1325
▁Colors	-14.1325
▁CtField	-14.1325
▁DropEvent	-14.1325
▁Final	-14.1325
▁Lazy	-14.1325
▁ListItr	-14.1325
▁NonRead	-14.1325
▁ObjID	-14.1325
▁TimerTest	-14.1325
▁VisPosCallResult	-14.1325
▁WebResult	-14.1325
▁XOffset	-14.1325
▁YOffset	-14.1325
▁disable	-14.1325
▁enableEvents	-14.1325
▁getByteArray	-14.1325
▁getDeviceInfo	-14.1325
▁getDrop	-14.1325
▁getMBeanCount	-14.1325
▁getNodeForPath	-14.1325
▁getPeerPrincipal	-14.1325
▁getThreadID	-14.1325
▁getUsableSpace	-14.1325
▁isStringPainted	-14.1325
▁let	-14.1325
▁ootstrap	-14.1325
▁port	-14.1325
▁pt	-14.1325
▁readNew	-14.1325
▁removeLocaleInfo	-14.1325
▁right	-14.1325
▁setExpandEntity	-14.1325
▁setLast	-14.1325
▁setMinimalDaysIn	-14.1325
▁ActivationID	-14.1437
▁Bl	-14.1437
▁CellHeight	-14.1437
▁DestImage	-14.1437
▁Di	-14.1437
▁Ep	-14.1437
▁JobName	-14.1437
▁KeyEntry	-14.1437
▁Modifiers	-14.1437
▁Multiplication	-14.1437
▁ObjFlag	-14.1437
▁Packer	-14.1437
▁Param	-14.1437
▁PasswordView	-14.1437
▁Policies	-14.1437
▁SQLOutputImpl	-14.1437
▁TableRowSorter	-14.1437
▁Using	-14.1437
▁WatchKey	-14.1437
▁WebFault	-14.1437
▁World	-14.1437
▁addRowSelection	-14.1437
▁createSourceFile	-14.1437
▁firePopupMenu	-14.1437
▁getDefaultInit	-14.1437
▁getFirstChild	-14.1437
▁getInfinity	-14.1437
▁getLAFState	-14.1437
▁getMidi	-14.1437
▁getReceiver	-14.1437
▁invokeFunction	-14.1437
▁isFair	-14.1437
▁isInProgress	-14.1437
▁izedStrip	-14.1437
▁lower	-14.1437
▁moveLead	-14.1437
▁ont	-14.1437
▁setShowGrid	-14.1437
▁5(	-14.155
▁AttributeValues	-14.155
▁FileChooser	-14.155
▁FocusHandler	-14.155
▁Functions	-14.155
▁LayoutStrategy	-14.155
▁MLetContent	-14.155
▁MetalCheckBox	-14.155
▁ModuleName	-14.155
▁Move	-14.155
▁NS	-14.155
▁Queued	-14.155
▁RemoveUpdate	-14.155
▁RowMapper	-14.155
▁SynthToolBarUI	-14.155
▁ToParent	-14.155
▁Two	-14.155
▁TypeSupported	-14.155
▁UserDefinedFile	-14.155
▁getAsTree	-14.155
▁getBottomInset	-14.155
▁getCell	-14.155
▁getCookie	-14.155
▁getInputContext	-14.155
▁getIteration	-14.155
▁getLogin	-14.155
▁getMenuBar	-14.155
▁getScript	-14.155
▁getUnicodeStream	-14.155
▁iary	-14.155
▁ice	-14.155
▁iling	-14.155
▁ingSupported	-14.155
▁isDoubleBuffered	-14.155
▁logrb	-14.155
▁loop	-14.155
▁num	-14.155
▁request	-14.155
▁sameFile	-14.155
▁supported	-14.155
▁toFile	-14.155
▁toUn	-14.155
▁valueChanged	-14.155
▁Accept	-14.1664
▁Aut	-14.1664
▁CallerRunsPolicy	-14.1664
▁ClassRef	-14.1664
▁CurrentMenu	-14.1664
▁DOM	-14.1664
▁Decorations	-14.1664
▁DragGestureEvent	-14.1664
▁Issuer	-14.1664
▁NamePair	-14.1664
▁Nodes	-14.1664
▁Realm	-14.1664
▁Stage	-14.1664
▁StringPair	-14.1664
▁WebRowSet	-14.1664
▁checkParamIndex	-14.1664
▁checkTreeLock	-14.1664
▁createFrom	-14.1664
▁eafIcon	-14.1664
▁findNext	-14.1664
▁findSystemClass	-14.1664
▁getModelWrapper	-14.1664
▁getRootElements	-14.1664
▁getSSL	-14.1664
▁getSizeFor	-14.1664
▁getStr	-14.1664
▁getTo	-14.1664
▁holder	-14.1664
▁ique	-14.1664
▁isBroken	-14.1664
▁isFocused	-14.1664
▁isPreferred	-14.1664
▁isUn	-14.1664
▁lex	-14.1664
▁olicited	-14.1664
▁orType	-14.1664
▁place	-14.1664
▁runState	-14.1664
▁setBlockDataMode	-14.1664
▁setInputVerifier	-14.1664
▁ulian	-14.1664
▁AtPoint	-14.178
▁BasicText	-14.178
▁CertSelectorTest	-14.178
▁ClientAlias	-14.178
▁JDialogTest	-14.178
▁JdbcRowSet	-14.178
▁KeyBindings	-14.178
▁KeyImpl	-14.178
▁LinkException	-14.178
▁ListString	-14.178
▁ParametersSpi	-14.178
▁Second	-14.178
▁Show	-14.178
▁Side	-14.178
▁Stores	-14.178
▁TestMetal	-14.178
▁Thickness	-14.178
▁TitlePaneTest	-14.178
▁WillBecome	-14.178
▁addSource	-14.178
▁av	-14.178
▁canPathsBe	-14.178
▁defaultPage	-14.178
▁doAsPrivileged	-14.178
▁evel	-14.178
▁generateSeed	-14.178
▁getIndexInfo	-14.178
▁getLineCount	-14.178
▁getMaxAllowed	-14.178
▁getNotification	-14.178
▁getOriginating	-14.178
▁getPaths	-14.178
▁getPrintService	-14.178
▁getSampleFloat	-14.178
▁getSoLinger	-14.178
▁getSubType	-14.178
▁getU	-14.178
▁hidePopup	-14.178
▁isSuperscript	-14.178
▁nextHandle	-14.178
▁nextUp	-14.178
▁nodes	-14.178
▁rease	-14.178
▁ref	-14.178
▁requiresBidi	-14.178
▁setClosed	-14.178
▁setRoundingMode	-14.178
▁toMicros	-14.178
▁toggle	-14.178
▁updateBytes	-14.178
▁Book	-14.1897
▁Conditional	-14.1897
▁Ct	-14.1897
▁FocusTarget	-14.1897
▁Gen	-14.1897
▁Labels	-14.1897
▁MidiFileWriter	-14.1897
▁Mock	-14.1897
▁ScrollListener	-14.1897
▁Signer	-14.1897
▁Traversal	-14.1897
▁TypeKindVisitor	-14.1897
▁ValueChanged	-14.1897
▁Variant	-14.1897
▁VerifyInputWhen	-14.1897
▁WindowBounds	-14.1897
▁addWindow	-14.1897
▁adding	-14.1897
▁afterLast	-14.1897
▁allow	-14.1897
▁ass	-14.1897
▁avor	-14.1897
▁checkNotNull	-14.1897
▁closeOutbound	-14.1897
▁createCharacters	-14.1897
▁createValue	-14.1897
▁getBest	-14.1897
▁getCheck	-14.1897
▁handleEndTag	-14.1897
▁her	-14.1897
▁inverseTransform	-14.1897
▁isSigned	-14.1897
▁isSurrogatePair	-14.1897
▁most	-14.1897
▁mutatesTo	-14.1897
▁oc	-14.1897
▁oll	-14.1897
▁ook	-14.1897
▁rowDeleted	-14.1897
▁sc	-14.1897
▁selectNext	-14.1897
▁setDataVector	-14.1897
▁setRowFilter	-14.1897
▁setTarget	-14.1897
▁treeNodesChanged	-14.1897
▁ualShaper	-14.1897
▁ually	-14.1897
▁utAction	-14.1897
▁APDU	-14.2015
▁AlgorithmMethod	-14.2015
▁BCSChild	-14.2015
▁COWSubList	-14.2015
▁Contr	-14.2015
▁ControlHighlight	-14.2015
▁CoreThread	-14.2015
▁Correctness	-14.2015
▁DNSRecord	-14.2015
▁DOMStructure	-14.2015
▁Diagonal	-14.2015
▁Dot	-14.2015
▁Draw	-14.2015
▁ExpiringCache	-14.2015
▁FilePermissions	-14.2015
▁ForTab	-14.2015
▁Integrity	-14.2015
▁LayoutState	-14.2015
▁ListPainter	-14.2015
▁MessageType	-14.2015
▁Multicast	-14.2015
▁NodesChanged	-14.2015
▁NotYetConnected	-14.2015
▁Packet	-14.2015
▁RemoveTest	-14.2015
▁RequestWrapper	-14.2015
▁RowId	-14.2015
▁StartOffset	-14.2015
▁Subqueries	-14.2015
▁Swatch	-14.2015
▁TableAccessible	-14.2015
▁TestCert	-14.2015
▁Tests	-14.2015
▁Tokenizer	-14.2015
▁URIReference	-14.2015
▁UTC	-14.2015
▁Undeclared	-14.2015
▁ade	-14.2015
▁assertNext	-14.2015
▁checkKey	-14.2015
▁getAdjusted	-14.2015
▁getAllow	-14.2015
▁getCharCount	-14.2015
▁getEventQueue	-14.2015
▁getSystemScope	-14.2015
▁getTrafficClass	-14.2015
▁note	-14.2015
▁noun	-14.2015
▁others	-14.2015
▁protectedArray	-14.2015
▁qsort	-14.2015
▁setFill	-14.2015
▁setPer	-14.2015
▁study	-14.2015
▁timestr	-14.2015
▁toIntScale	-14.2015
▁Aligned	-14.2135
▁Banded	-14.2135
▁Compliant	-14.2135
▁Convert	-14.2135
▁Cubic	-14.2135
▁Delete	-14.2135
▁DirStateFactory	-14.2135
▁EditableText	-14.2135
▁EncodingScheme	-14.2135
▁Expand	-14.2135
▁Inner	-14.2135
▁Named	-14.2135
▁Payload	-14.2135
▁Preferred	-14.2135
▁ReadParam	-14.2135
▁Requested	-14.2135
▁Specified	-14.2135
▁TargetDataLine	-14.2135
▁TypeException	-14.2135
▁UserTime	-14.2135
▁args	-14.2135
▁calculateMinor	-14.2135
▁ched	-14.2135
▁divideToInte	-14.2135
▁getAmPmStrings	-14.2135
▁getCross	-14.2135
▁getDisplayNames	-14.2135
▁getInfo	-14.2135
▁getMaxColumnsIn	-14.2135
▁getPayload	-14.2135
▁getSelectedIcon	-14.2135
▁gralValue	-14.2135
▁inue	-14.2135
▁invalid	-14.2135
▁isEnqueued	-14.2135
▁isSub	-14.2135
▁isSurrogate	-14.2135
▁lookupDefault	-14.2135
▁lowest	-14.2135
▁mon	-14.2135
▁needs	-14.2135
▁newTaskFor	-14.2135
▁odal	-14.2135
▁orderEnumeration	-14.2135
▁own	-14.2135
▁properties	-14.2135
▁resume	-14.2135
▁sBy	-14.2135
▁setEndRule	-14.2135
▁setResolveParent	-14.2135
▁setStartRule	-14.2135
▁8.	-14.2256
▁AccessibleJLabel	-14.2256
▁CertificateChain	-14.2256
▁ExpandControl	-14.2256
▁Function	-14.2256
▁GeomTestCase	-14.2256
▁HSB	-14.2256
▁JAXBException	-14.2256
▁Kit	-14.2256
▁KitAction	-14.2256
▁Opcode	-14.2256
▁Pressed	-14.2256
▁Primitive	-14.2256
▁Shared	-14.2256
▁StateChanged	-14.2256
▁StateEdit	-14.2256
▁StringValueExp	-14.2256
▁Suites	-14.2256
▁TypeInfo	-14.2256
▁Unmarshal	-14.2256
▁XmlRootElement	-14.2256
▁checkSingleEvent	-14.2256
▁complement	-14.2256
▁getBound	-14.2256
▁getContextTest	-14.2256
▁getImportedKeys	-14.2256
▁getNo	-14.2256
▁getRegistered	-14.2256
▁getSourceRegion	-14.2256
▁getThreadFactory	-14.2256
▁getWord	-14.2256
▁isCurrency	-14.2256
▁isMarked	-14.2256
▁isStrikeThrough	-14.2256
▁keyPressed	-14.2256
▁low	-14.2256
▁newIllegal	-14.2256
▁offerFirst	-14.2256
▁ormal	-14.2256
▁ous	-14.2256
▁page	-14.2256
▁quare	-14.2256
▁setBorderTo	-14.2256
▁setEchoChar	-14.2256
▁setKey	-14.2256
▁setTabSize	-14.2256
▁sets	-14.2256
▁ther	-14.2256
▁toAbsolutePath	-14.2256
▁toCSS	-14.2256
▁treeNodes	-14.2256
▁updateLong	-14.2256
▁16.	-14.2379
▁AATextListener	-14.2379
▁Blocker	-14.2379
▁ConnectionEvent	-14.2379
▁Contain	-14.2379
▁ContentBorder	-14.2379
▁Deadlocked	-14.2379
▁Detected	-14.2379
▁East	-14.2379
▁FocusCycleRoot	-14.2379
▁GLJPanel	-14.2379
▁Gray	-14.2379
▁HeaderView	-14.2379
▁IconUIResource	-14.2379
▁MethodDescriptor	-14.2379
▁Mill	-14.2379
▁Perm	-14.2379
▁Privile	-14.2379
▁Quadr	-14.2379
▁RoleUnresolved	-14.2379
▁Scope	-14.2379
▁ToolTipUI	-14.2379
▁UpTo	-14.2379
▁WebMethod	-14.2379
▁West	-14.2379
▁addUndoableEdit	-14.2379
▁allback	-14.2379
▁anguage	-14.2379
▁askNull	-14.2379
▁ced	-14.2379
▁contentsChanged	-14.2379
▁enderingHints	-14.2379
▁ep	-14.2379
▁ew	-14.2379
▁findMethod	-14.2379
▁getCodeSigners	-14.2379
▁getControlFlag	-14.2379
▁getInactive	-14.2379
▁getInside	-14.2379
▁getMime	-14.2379
▁getNextMatch	-14.2379
▁getPrimeP	-14.2379
▁getPrimeQ	-14.2379
▁getSelect	-14.2379
▁getTickLength	-14.2379
▁getTitleFont	-14.2379
▁getTracks	-14.2379
▁getTypeInfo	-14.2379
▁imageUpdate	-14.2379
▁isRemoved	-14.2379
▁locate	-14.2379
▁maxBytesPerChar	-14.2379
▁olvedName	-14.2379
▁sAre	-14.2379
▁setDisplayMode	-14.2379
▁setImageableArea	-14.2379
▁setMaximizable	-14.2379
▁setMnemonicAt	-14.2379
▁setMode	-14.2379
▁setPro	-14.2379
▁setUnicode	-14.2379
▁treeNodesRemoved	-14.2379
▁unsupported	-14.2379
▁waitForAll	-14.2379
▁16	-14.2503
▁Allow	-14.2503
▁AtEnd	-14.2503
▁BidiText	-14.2503
▁DisplayName	-14.2503
▁FontFamilyNames	-14.2503
▁HoldCount	-14.2503
▁ItemController	-14.2503
▁JTableTest	-14.2503
▁Just	-14.2503
▁MonitorInfo	-14.2503
▁Nimbus	-14.2503
▁OctetStreamData	-14.2503
▁Offsets	-14.2503
▁Pageable	-14.2503
▁StartTag	-14.2503
▁TimerHeap	-14.2503
▁TreeWillExpand	-14.2503
▁UIInput	-14.2503
▁URLHandler	-14.2503
▁Ver	-14.2503
▁addCertStore	-14.2503
▁crement	-14.2503
▁egal	-14.2503
▁findNode	-14.2503
▁findSlot	-14.2503
▁getGr	-14.2503
▁getLastIndex	-14.2503
▁getTitleColor	-14.2503
▁getWrite	-14.2503
▁isFloatable	-14.2503
▁isValidating	-14.2503
▁local	-14.2503
▁ments	-14.2503
▁paintSlider	-14.2503
▁redential	-14.2503
▁regexFilter	-14.2503
▁removePopupMenu	-14.2503
▁sOn	-14.2503
▁sendUrgentData	-14.2503
▁setEventHandler	-14.2503
▁setIconAt	-14.2503
▁setIf	-14.2503
▁timestamp	-14.2503
▁tryCancel	-14.2503
▁<?>[])</t>	-14.2629
▁Atom	-14.2629
▁Attachment	-14.2629
▁CUP	-14.2629
▁Fl	-14.2629
▁ForFlavor	-14.2629
▁Formatted	-14.2629
▁LazyValue	-14.2629
▁Lower	-14.2629
▁NotYetValid	-14.2629
▁Poolable	-14.2629
▁RMIServerImpl	-14.2629
▁ToText	-14.2629
▁clearCache	-14.2629
▁createUnion	-14.2629
▁ctivate	-14.2629
▁drainPermits	-14.2629
▁editToBe	-14.2629
▁flushBefore	-14.2629
▁getBytesRead	-14.2629
▁getFractional	-14.2629
▁getIconAt	-14.2629
▁getMenuSelected	-14.2629
▁getNegotiated	-14.2629
▁getRowId	-14.2629
▁getRunForTab	-14.2629
▁ingMXBean	-14.2629
▁isSpace	-14.2629
▁isUp	-14.2629
▁lickCount	-14.2629
▁ocking	-14.2629
▁oder	-14.2629
▁omain	-14.2629
▁parseCssValue	-14.2629
▁ron	-14.2629
▁setFixed	-14.2629
▁setIgnoreRepaint	-14.2629
▁setNext	-14.2629
▁shiftGap	-14.2629
▁updateLead	-14.2629
▁updateTime	-14.2629
▁ustom	-14.2629
▁ux	-14.2629
▁2253	-14.2756
▁Ad	-14.2756
▁AndLocation	-14.2756
▁Coordinates	-14.2756
▁CtBehavior	-14.2756
▁Dash	-14.2756
▁Delegated	-14.2756
▁DisplayValue	-14.2756
▁DragRecognition	-14.2756
▁ECPublicKeySpec	-14.2756
▁EditorRect	-14.2756
▁GridSide	-14.2756
▁Hi	-14.2756
▁IDecoder	-14.2756
▁Ignore	-14.2756
▁ImageComponent	-14.2756
▁JoglPipeline	-14.2756
▁LexicalAnalyzer	-14.2756
▁MenuBarUI	-14.2756
▁Navigate	-14.2756
▁NimbusStyle	-14.2756
▁Rfc	-14.2756
▁ScrollButton	-14.2756
▁ServerAlias	-14.2756
▁Smart	-14.2756
▁Spacing	-14.2756
▁TabRuns	-14.2756
▁Transmitter	-14.2756
▁ViewToModel	-14.2756
▁acet	-14.2756
▁addConnection	-14.2756
▁addMailcap	-14.2756
▁addNamespace	-14.2756
▁avigation	-14.2756
▁checkAccept	-14.2756
▁checkNot	-14.2756
▁countObservers	-14.2756
▁debugFlash	-14.2756
▁deregisterDriver	-14.2756
▁die	-14.2756
▁ency	-14.2756
▁evoked	-14.2756
▁fastGet	-14.2756
▁free	-14.2756
▁getAlignmentY	-14.2756
▁getMinor	-14.2756
▁getNClob	-14.2756
▁getResizeWeight	-14.2756
▁internalFrame	-14.2756
▁isDrawingBuffer	-14.2756
▁newWriter	-14.2756
▁ormalBounds	-14.2756
▁ormalized	-14.2756
▁orter	-14.2756
▁readPassword	-14.2756
▁sendDataChanged	-14.2756
▁setClass	-14.2756
▁ss	-14.2756
▁ynamic	-14.2756
▁AudioFileWriter	-14.2885
▁Bands	-14.2885
▁Changes	-14.2885
▁Collap	-14.2885
▁DHPrivateKey	-14.2885
▁Def	-14.2885
▁Distance	-14.2885
▁Enclosing	-14.2885
▁Gu	-14.2885
▁HeapByteBuffer	-14.2885
▁Monster	-14.2885
▁OrNull	-14.2885
▁PSpecified	-14.2885
▁PendingException	-14.2885
▁QueuedThread	-14.2885
▁Texture	-14.2885
▁damage	-14.2885
▁flushCaches	-14.2885
▁getAffine	-14.2885
▁getArcHeight	-14.2885
▁getArcWidth	-14.2885
▁getCopyAction	-14.2885
▁getDrivers	-14.2885
▁getMGF	-14.2885
▁getMinWidth	-14.2885
▁getRelation	-14.2885
▁getSourceBands	-14.2885
▁handleGet	-14.2885
▁high	-14.2885
▁iagn	-14.2885
▁iconifyFrame	-14.2885
▁initial	-14.2885
▁isEditValid	-14.2885
▁keyReleased	-14.2885
▁owns	-14.2885
▁printAll	-14.2885
▁ptSegDistSq	-14.2885
▁registerObject	-14.2885
▁selectPrevious	-14.2885
▁setPrototype	-14.2885
▁toStub	-14.2885
▁updateByte	-14.2885
▁validOps	-14.2885
▁wo	-14.2885
▁xception	-14.2885
▁ActionController	-14.3016
▁AfterWait	-14.3016
▁Age	-14.3016
▁AppletContext	-14.3016
▁BeanDescriptor	-14.3016
▁CancelledWait	-14.3016
▁ClientInfo	-14.3016
▁Dragging	-14.3016
▁FilterGeneric	-14.3016
▁Heavyweight	-14.3016
▁ImageWriterSpi	-14.3016
▁InvalidDnD	-14.3016
▁Letter	-14.3016
▁LoadedClassCount	-14.3016
▁LookAndFeelTest	-14.3016
▁MasterControl	-14.3016
▁MemberAccess	-14.3016
▁MenuKeyBinding	-14.3016
▁MetalButtonUI	-14.3016
▁Mirrors	-14.3016
▁MixerProvider	-14.3016
▁MyPropertyChange	-14.3016
▁Other	-14.3016
▁RoleList	-14.3016
▁Shader	-14.3016
▁Shutdown	-14.3016
▁Signal	-14.3016
▁TC	-14.3016
▁TagView	-14.3016
▁Top	-14.3016
▁WhileWaiting	-14.3016
▁addContent	-14.3016
▁adjustAllocation	-14.3016
▁checkInterrupt	-14.3016
▁checkInvariants	-14.3016
▁checkValues	-14.3016
▁clusive	-14.3016
▁createTest	-14.3016
▁eader	-14.3016
▁ely	-14.3016
▁getFieldOffset	-14.3016
▁getMedia	-14.3016
▁getMetadata	-14.3016
▁getPrintData	-14.3016
▁getScreen	-14.3016
▁getSigAlg	-14.3016
▁getSuper	-14.3016
▁getTitlePosition	-14.3016
▁inear	-14.3016
▁ink	-14.3016
▁insertHTML	-14.3016
▁isAuthorized	-14.3016
▁isJava	-14.3016
▁isMimeTypeEqual	-14.3016
▁lazyValueForFont	-14.3016
▁parkAndCheck	-14.3016
▁privateGet	-14.3016
▁reportInterrupt	-14.3016
▁selfInterrupt	-14.3016
▁setExtra	-14.3016
▁setGridColor	-14.3016
▁setGrouping	-14.3016
▁setInputMap	-14.3016
▁setNextWarning	-14.3016
▁setPaper	-14.3016
▁sh	-14.3016
▁transferAfter	-14.3016
▁updateDouble	-14.3016
▁waitAction	-14.3016
▁AbortRequest	-14.3148
▁ClientOperation	-14.3148
▁FileNode	-14.3148
▁FilterSupport	-14.3148
▁GLContext	-14.3148
▁InParent	-14.3148
▁KeyboardManager	-14.3148
▁Listen	-14.3148
▁Marshal	-14.3148
▁NonRollover	-14.3148
▁Quote	-14.3148
▁RBCollation	-14.3148
▁Record	-14.3148
▁StyledParagraph	-14.3148
▁TreeCellEditor	-14.3148
▁TypeEntry	-14.3148
▁UnencodedNative	-14.3148
▁WheelScroll	-14.3148
▁ancestor	-14.3148
▁approxPrecision	-14.3148
▁bar	-14.3148
▁clearCaches	-14.3148
▁dd	-14.3148
▁debugBuffered	-14.3148
▁debugGraphics	-14.3148
▁domain	-14.3148
▁drawSelectedText	-14.3148
▁dropArguments	-14.3148
▁elementData	-14.3148
▁eme	-14.3148
▁ensureCache	-14.3148
▁getDigestLength	-14.3148
▁getExpanded	-14.3148
▁getFileStore	-14.3148
▁getSampleDouble	-14.3148
▁getSeed	-14.3148
▁icode	-14.3148
▁isIs	-14.3148
▁isSearchable	-14.3148
▁newSignature	-14.3148
▁ptSegDist	-14.3148
▁pushDefault	-14.3148
▁scrollable	-14.3148
▁setContentId	-14.3148
▁setNotify	-14.3148
▁setResolvedObj	-14.3148
▁setToRotation	-14.3148
▁sive	-14.3148
▁storeToXML	-14.3148
▁tryTerminate	-14.3148
▁updateShort	-14.3148
▁ActionsTest	-14.3283
▁BorderListener	-14.3283
▁DropTargetTest	-14.3283
▁Enumerator	-14.3283
▁ErrorException	-14.3283
▁ExternalContext	-14.3283
▁ExternalData	-14.3283
▁GroupBy	-14.3283
▁HTMLFactoryTest	-14.3283
▁IconView	-14.3283
▁Ignoring	-14.3283
▁InnerArea	-14.3283
▁LoadPriority	-14.3283
▁Progressive	-14.3283
▁PublicKeyAlgID	-14.3283
▁Register	-14.3283
▁Slider	-14.3283
▁SynthSpinnerUI	-14.3283
▁TabArea	-14.3283
▁TestMetalTheme	-14.3283
▁addIssuerName	-14.3283
▁anentFocusOwner	-14.3283
▁app	-14.3283
▁atic	-14.3283
▁atives	-14.3283
▁attributeNames	-14.3283
▁big	-14.3283
▁block	-14.3283
▁checkButton	-14.3283
▁checkHeadless	-14.3283
▁ctivated	-14.3283
▁edNotification	-14.3283
▁findElement	-14.3283
▁getGlyphPainter	-14.3283
▁getIndexOfChild	-14.3283
▁getNaN	-14.3283
▁getNestingKind	-14.3283
▁getPressedIcon	-14.3283
▁getRGBComponents	-14.3283
▁getRound	-14.3283
▁getStringArray	-14.3283
▁imumSizeSet	-14.3283
▁irectories	-14.3283
▁isLogging	-14.3283
▁isOutboundDone	-14.3283
▁iteral	-14.3283
▁mul	-14.3283
▁properPath	-14.3283
▁resol	-14.3283
▁sed	-14.3283
▁status	-14.3283
▁ulti	-14.3283
▁updateBoolean	-14.3283
▁wing	-14.3283
▁Animation	-14.3419
▁AppletStub	-14.3419
▁Ascending	-14.3419
▁Bar	-14.3419
▁CharacterAction	-14.3419
▁Combine	-14.3419
▁DocPrintJob	-14.3419
▁Embedded	-14.3419
▁ExceptionIn	-14.3419
▁FileSystemModel	-14.3419
▁Finalizer	-14.3419
▁Global	-14.3419
▁Graph	-14.3419
▁InitializerError	-14.3419
▁Pres	-14.3419
▁Ranges	-14.3419
▁ScaleFilter	-14.3419
▁ServerImpl	-14.3419
▁Shorthand	-14.3419
▁SpecialCasing	-14.3419
▁TracksViewport	-14.3419
▁Translate	-14.3419
▁ca	-14.3419
▁displayMessage	-14.3419
▁entry	-14.3419
▁fatalError	-14.3419
▁fireUndoableEdit	-14.3419
▁getBitOffsets	-14.3419
▁getCreationDate	-14.3419
▁getDraggedColumn	-14.3419
▁getMBeanName	-14.3419
▁getOOBInline	-14.3419
▁getReadHoldCount	-14.3419
▁getTail	-14.3419
▁getWeek	-14.3419
▁isAl	-14.3419
▁isParityAdjusted	-14.3419
▁isParse	-14.3419
▁isSameFile	-14.3419
▁ite	-14.3419
▁maxCharsPerByte	-14.3419
▁point	-14.3419
▁postActionEvent	-14.3419
▁sce	-14.3419
▁setWindow	-14.3419
▁stream	-14.3419
▁termin	-14.3419
▁unpack	-14.3419
▁updateFloat	-14.3419
▁ycle	-14.3419
▁AWTError	-14.3557
▁Between	-14.3557
▁ChlorideTheme	-14.3557
▁ComboBoxRenderer	-14.3557
▁ComponentInfo	-14.3557
▁Copper	-14.3557
▁De	-14.3557
▁Descendant	-14.3557
▁DragController	-14.3557
▁ForFrame	-14.3557
▁FromMap	-14.3557
▁Guard	-14.3557
▁IconFactoryTest	-14.3557
▁Intersect	-14.3557
▁JTextFieldTest	-14.3557
▁Noninvertible	-14.3557
▁Ordered	-14.3557
▁Possible	-14.3557
▁Pref	-14.3557
▁ProgressBar	-14.3557
▁RL	-14.3557
▁RelationSupport	-14.3557
▁ScrollbarTest	-14.3557
▁Sheet	-14.3557
▁SignedInfo	-14.3557
▁TextFieldTest	-14.3557
▁XMLSynthParser	-14.3557
▁celerator	-14.3557
▁checkColor	-14.3557
▁checkIcon	-14.3557
▁checkRange	-14.3557
▁cho	-14.3557
▁enabledOnToolkit	-14.3557
▁getApprove	-14.3557
▁getFlags	-14.3557
▁getJava	-14.3557
▁getLockedStack	-14.3557
▁getLoggerNames	-14.3557
▁getLogicalStyle	-14.3557
▁getMousePosition	-14.3557
▁getNextSibling	-14.3557
▁getSupports	-14.3557
▁getValidValue	-14.3557
▁getVisualBounds	-14.3557
▁inked	-14.3557
▁insertCase	-14.3557
▁invokeAsync	-14.3557
▁isActionKey	-14.3557
▁isFrame	-14.3557
▁isUnshared	-14.3557
▁isVertical	-14.3557
▁ismissDelay	-14.3557
▁keyTyped	-14.3557
▁newKeyInfo	-14.3557
▁nullsAreSorted	-14.3557
▁oid	-14.3557
▁removeItemAt	-14.3557
▁rescanCurrent	-14.3557
▁runStateOf	-14.3557
▁scrollByUnit	-14.3557
▁segmentFor	-14.3557
▁setMenuBar	-14.3557
▁setPrecision	-14.3557
▁setUser	-14.3557
▁step	-14.3557
▁tiAlias	-14.3557
▁uple	-14.3557
▁<?>[],	-14.3696
▁AndTime	-14.3696
▁ArrowIcon	-14.3696
▁AtPath	-14.3696
▁Fragment	-14.3696
▁Has	-14.3696
▁Molecule	-14.3696
▁PathTo	-14.3696
▁PrimitiveType	-14.3696
▁Revoked	-14.3696
▁Simplex	-14.3696
▁TabRun	-14.3696
▁ToPopup	-14.3696
▁Unit	-14.3696
▁aemon	-14.3696
▁afterExecute	-14.3696
▁bank	-14.3696
▁cancelRowUpdates	-14.3696
▁checkProperties	-14.3696
▁ebug	-14.3696
▁escriptor	-14.3696
▁eter	-14.3696
▁getAdler	-14.3696
▁getDTD	-14.3696
▁getDialog	-14.3696
▁getHigh	-14.3696
▁getIndent	-14.3696
▁getLex	-14.3696
▁getPropagationId	-14.3696
▁getRunLevel	-14.3696
▁getShowDeleted	-14.3696
▁getStamp	-14.3696
▁getStrength	-14.3696
▁getUptime	-14.3696
▁handleEvent	-14.3696
▁isCollection	-14.3696
▁isOn	-14.3696
▁ono	-14.3696
▁padding	-14.3696
▁parseServer	-14.3696
▁setAttributes	-14.3696
▁setInter	-14.3696
▁supportsFile	-14.3696
▁toBundleName	-14.3696
▁trans	-14.3696
▁updateCursor	-14.3696
▁waitForIdle	-14.3696
▁Acquire	-14.3838
▁AlternativeName	-14.3838
▁ArrayMap	-14.3838
▁BasicSwing	-14.3838
▁Cached	-14.3838
▁CharacterStyle	-14.3838
▁ChildCount	-14.3838
▁CommandAPDU	-14.3838
▁CurrencySymbol	-14.3838
▁DateEditor	-14.3838
▁DeltaFaces	-14.3838
▁Dimensions	-14.3838
▁Direction	-14.3838
▁ElementKind	-14.3838
▁EventContext	-14.3838
▁Exchange	-14.3838
▁FlipCallResult	-14.3838
▁Forwarder	-14.3838
▁Imp	-14.3838
▁Iter	-14.3838
▁LockedUpdater	-14.3838
▁ModelListener	-14.3838
▁NamingListener	-14.3838
▁NoType	-14.3838
▁PoolMXBeans	-14.3838
▁RawMemTest	-14.3838
▁SearchFilter	-14.3838
▁SerialStruct	-14.3838
▁Sorted	-14.3838
▁StateHelperTest	-14.3838
▁Synthesizer	-14.3838
▁ViewAttributeSet	-14.3838
▁addMessage	-14.3838
▁configureEditor	-14.3838
▁constr	-14.3838
▁createNew	-14.3838
▁deregister	-14.3838
▁drawDashed	-14.3838
▁enter	-14.3838
▁getChildIndex	-14.3838
▁getChildState	-14.3838
▁getCipher	-14.3838
▁getContentId	-14.3838
▁getInputMethod	-14.3838
▁getRootCause	-14.3838
▁getUrl	-14.3838
▁getZoneStrings	-14.3838
▁hex	-14.3838
▁isFlashing	-14.3838
▁isMCNodeLocal	-14.3838
▁its	-14.3838
▁jjStopAtPos	-14.3838
▁lockAWT	-14.3838
▁nextOffset	-14.3838
▁nullable	-14.3838
▁ph	-14.3838
▁removeHighlight	-14.3838
▁removeTableModel	-14.3838
▁setDerefLinkFlag	-14.3838
▁setMBeanServer	-14.3838
▁setTableHeader	-14.3838
▁setThreadFactory	-14.3838
▁updateBigDecimal	-14.3838
▁vecswap	-14.3838
▁visitType	-14.3838
▁writeDTD	-14.3838
▁writeMode	-14.3838
▁<?	-14.3982
▁Above	-14.3982
▁CalendarSystem	-14.3982
▁CharsetException	-14.3982
▁Composition	-14.3982
▁DataManipulation	-14.3982
▁DragLocation	-14.3982
▁Exec	-14.3982
▁FormatterBuilder	-14.3982
▁Gaps	-14.3982
▁IllegalBlock	-14.3982
▁Initialization	-14.3982
▁Invoker	-14.3982
▁Login	-14.3982
▁Managed	-14.3982
▁MouseGrabber	-14.3982
▁Prev	-14.3982
▁PrimaryAxis	-14.3982
▁Prop	-14.3982
▁Redo	-14.3982
▁Ro	-14.3982
▁Sig	-14.3982
▁StackMapTest	-14.3982
▁StateController	-14.3982
▁Stor	-14.3982
▁Successor	-14.3982
▁Tip	-14.3982
▁ToggleButton	-14.3982
▁URIDereferencer	-14.3982
▁addDirtyRegion	-14.3982
▁addSubject	-14.3982
▁addTreeModel	-14.3982
▁addWorker	-14.3982
▁ayload	-14.3982
▁calculateTiled	-14.3982
▁checkPainter	-14.3982
▁checkPrintJob	-14.3982
▁createArray	-14.3982
▁equal	-14.3982
▁eta	-14.3982
▁etail	-14.3982
▁getRenderedImage	-14.3982
▁getScrollAmount	-14.3982
▁getTransmitter	-14.3982
▁gram	-14.3982
▁gress	-14.3982
▁indexOfSubList	-14.3982
▁isChar	-14.3982
▁isDrop	-14.3982
▁isInboundDone	-14.3982
▁isRegularFile	-14.3982
▁localized	-14.3982
▁ord	-14.3982
▁pass	-14.3982
▁regionEnd	-14.3982
▁setPrint	-14.3982
▁ship	-14.3982
▁toLower	-14.3982
▁transformFrom	-14.3982
▁8(	-14.4128
▁Adjust	-14.4128
▁AndBind	-14.4128
▁AsBytes	-14.4128
▁Barrier	-14.4128
▁Blocked	-14.4128
▁ButtonsAreShown	-14.4128
▁CASUpdater	-14.4128
▁ChoicePopupBox	-14.4128
▁ClosedSelector	-14.4128
▁DBorder	-14.4128
▁DSyntaxTest	-14.4128
▁EventImpl	-14.4128
▁Fail	-14.4128
▁FailedException	-14.4128
▁ForType	-14.4128
▁ListenerTest	-14.4128
▁Motion	-14.4128
▁NodeChangeEvent	-14.4128
▁OpenMBeanInfo	-14.4128
▁Player	-14.4128
▁Pop	-14.4128
▁Recent	-14.4128
▁ScopeMap	-14.4128
▁SortControl	-14.4128
▁SplitPane	-14.4128
▁TableCell	-14.4128
▁TableEx	-14.4128
▁ToStart	-14.4128
▁UTF	-14.4128
▁UserName	-14.4128
▁VMID	-14.4128
▁Wheel	-14.4128
▁addSingleton	-14.4128
▁apping	-14.4128
▁average	-14.4128
▁checkColumnIndex	-14.4128
▁className	-14.4128
▁computeUnion	-14.4128
▁echoCharIsSet	-14.4128
▁egister	-14.4128
▁ert	-14.4128
▁findFirst	-14.4128
▁getAccessibleAt	-14.4128
▁getActiveWindow	-14.4128
▁getAllFonts	-14.4128
▁getAtIndex	-14.4128
▁getBlockedCount	-14.4128
▁getControlInfo	-14.4128
▁getDriverVersion	-14.4128
▁getEchoChar	-14.4128
▁getFixed	-14.4128
▁getLineInstance	-14.4128
▁getLogicalBounds	-14.4128
▁getMacLength	-14.4128
▁getMatchColumn	-14.4128
▁getNextValue	-14.4128
▁getPrincipal	-14.4128
▁getReal	-14.4128
▁getRowX	-14.4128
▁getTBS	-14.4128
▁getUtf	-14.4128
▁hasSame	-14.4128
▁invert	-14.4128
▁isAuto	-14.4128
▁isBuffered	-14.4128
▁isFixedRowHeight	-14.4128
▁isFullScreen	-14.4128
▁parameterList	-14.4128
▁readSocksReply	-14.4128
▁rive	-14.4128
▁sFor	-14.4128
▁scape	-14.4128
▁setDecomposition	-14.4128
▁setObserved	-14.4128
▁storesMixedCase	-14.4128
▁trace	-14.4128
▁AllCoreThreads	-14.4276
▁Bounding	-14.4276
▁ChildLocator	-14.4276
▁Contents	-14.4276
▁ControlIcon	-14.4276
▁DGraphics	-14.4276
▁DImpl	-14.4276
▁DateTimeSyntax	-14.4276
▁Delet	-14.4276
▁IX	-14.4276
▁LostBehavior	-14.4276
▁MapIterator	-14.4276
▁Occupied	-14.4276
▁OwnerException	-14.4276
▁Referenceable	-14.4276
▁Remaining	-14.4276
▁Rendering	-14.4276
▁ResponseWrapper	-14.4276
▁Retention	-14.4276
▁Thumbnail	-14.4276
▁XPathFilter	-14.4276
▁addIfAbsent	-14.4276
▁calculateMajor	-14.4276
▁createSub	-14.4276
▁creen	-14.4276
▁eeded	-14.4276
▁ffer	-14.4276
▁getBidi	-14.4276
▁getBits	-14.4276
▁getBroad	-14.4276
▁getImpact	-14.4276
▁getPixelStride	-14.4276
▁getSelectedColor	-14.4276
▁getSeverity	-14.4276
▁getSort	-14.4276
▁getURLContext	-14.4276
▁getUnicode	-14.4276
▁ines	-14.4276
▁inferBinaryName	-14.4276
▁isConstrained	-14.4276
▁isCyclic	-14.4276
▁isLead	-14.4276
▁isSealed	-14.4276
▁large	-14.4276
▁makeVisible	-14.4276
▁newByteChannel	-14.4276
▁olog	-14.4276
▁path	-14.4276
▁ras	-14.4276
▁rec	-14.4276
▁reorder	-14.4276
▁rowInserted	-14.4276
▁setEditing	-14.4276
▁updateDate	-14.4276
▁updateTimestamp	-14.4276
▁00	-14.4427
▁ClassFileWriter	-14.4427
▁Compare	-14.4427
▁ContainerGaps	-14.4427
▁Discard	-14.4427
▁FilteredRowSet	-14.4427
▁FlipContents	-14.4427
▁FromModel	-14.4427
▁HashMapEntry	-14.4427
▁HiddenTagView	-14.4427
▁IIOWrite	-14.4427
▁ImageData	-14.4427
▁Immediately	-14.4427
▁KeyStrokes	-14.4427
▁LinkInfo	-14.4427
▁MaskCharacter	-14.4427
▁MenuItemIcon	-14.4427
▁Met	-14.4427
▁Notifier	-14.4427
▁SearchBuffer	-14.4427
▁Var	-14.4427
▁WatchService	-14.4427
▁aging	-14.4427
▁allowCoreThread	-14.4427
▁appContextPut	-14.4427
▁checkScrollbar	-14.4427
▁convertRectangle	-14.4427
▁createSample	-14.4427
▁createTrack	-14.4427
▁endTag	-14.4427
▁ession	-14.4427
▁etAddress	-14.4427
▁forwardUpdate	-14.4427
▁genExemptionBlob	-14.4427
▁getAllowsInvalid	-14.4427
▁getPeerPort	-14.4427
▁getPrimitive	-14.4427
▁getRowType	-14.4427
▁getTimeToLive	-14.4427
▁hasName	-14.4427
▁ication	-14.4427
▁isNameCompatible	-14.4427
▁isNativeMethod	-14.4427
▁isVerbose	-14.4427
▁nonNull	-14.4427
▁ong	-14.4427
▁pol	-14.4427
▁readAll	-14.4427
▁ree	-14.4427
▁ret	-14.4427
▁sAcross	-14.4427
▁scrollByBlock	-14.4427
▁setRaw	-14.4427
▁setRemainingName	-14.4427
▁shouldSelectCell	-14.4427
▁signalNot	-14.4427
▁supportsOpen	-14.4427
▁syn	-14.4427
▁tep	-14.4427
▁toHours	-14.4427
▁ump	-14.4427
▁uplicate	-14.4427
▁writeEntityRef	-14.4427
▁<?>>)</t>	-14.4579
▁BasicFileView	-14.4579
▁Behavior	-14.4579
▁CompiledScript	-14.4579
▁DelegateTest	-14.4579
▁Der	-14.4579
▁Digits	-14.4579
▁ErrorManager	-14.4579
▁EventMulticaster	-14.4579
▁Exclusive	-14.4579
▁FDBigInt	-14.4579
▁HTMLToCSS	-14.4579
▁HtmlInput	-14.4579
▁InputSource	-14.4579
▁JarHandler	-14.4579
▁KeyProperty	-14.4579
▁ListenerStatus	-14.4579
▁LoadStatus	-14.4579
▁Lost	-14.4579
▁OfType	-14.4579
▁PowerOfTen	-14.4579
▁Program	-14.4579
▁Reg	-14.4579
▁Rel	-14.4579
▁SerialException	-14.4579
▁Updates	-14.4579
▁addBodyElement	-14.4579
▁ail	-14.4579
▁aller	-14.4579
▁anularityPeriod	-14.4579
▁checkExit	-14.4579
▁combine	-14.4579
▁createD	-14.4579
▁dPrint	-14.4579
▁deleteIf	-14.4579
▁edNotifications	-14.4579
▁enticationID	-14.4579
▁full	-14.4579
▁getClientAliases	-14.4579
▁getClosest	-14.4579
▁getDomains	-14.4579
▁getFaultString	-14.4579
▁getFieldSize	-14.4579
▁getFileNameMap	-14.4579
▁getInputValue	-14.4579
▁getMBean	-14.4579
▁getPasteAction	-14.4579
▁getProcedure	-14.4579
▁getRight	-14.4579
▁getTextBytes	-14.4579
▁higherEntry	-14.4579
▁ift	-14.4579
▁ii	-14.4579
▁ions	-14.4579
▁isFlavorTextType	-14.4579
▁isInNative	-14.4579
▁layoutChanged	-14.4579
▁mar	-14.4579
▁omit	-14.4579
▁paste	-14.4579
▁ptLineDist	-14.4579
▁redirect	-14.4579
▁registerGroup	-14.4579
▁related	-14.4579
▁scaleBy	-14.4579
▁setDimensions	-14.4579
▁setRoundRect	-14.4579
▁setTitleColor	-14.4579
▁setWantsInput	-14.4579
▁subdivide	-14.4579
▁throwing	-14.4579
▁unning	-14.4579
▁updateArray	-14.4579
▁updateRef	-14.4579
▁walkFileTree	-14.4579
▁AbstractHashMap	-14.4734
▁Authorization	-14.4734
▁BooleanControl	-14.4734
▁CRLNumber	-14.4734
▁ChangeTest	-14.4734
▁CloseException	-14.4734
▁CreateForTag	-14.4734
▁DefaultFocus	-14.4734
▁Dirty	-14.4734
▁Explicit	-14.4734
▁FileTypes	-14.4734
▁HeaderRenderer	-14.4734
▁JLabelTest	-14.4734
▁KeyFactorySpi	-14.4734
▁Marker	-14.4734
▁PolicyRequired	-14.4734
▁RemoteServer	-14.4734
▁SelectedPaths	-14.4734
▁Sibling	-14.4734
▁ZDB	-14.4734
▁alette	-14.4734
▁atcher	-14.4734
▁comparable	-14.4734
▁cond	-14.4734
▁cop	-14.4734
▁deinstall	-14.4734
▁dragExit	-14.4734
▁dragOver	-14.4734
▁ecur	-14.4734
▁efin	-14.4734
▁exportEntry	-14.4734
▁getDetail	-14.4734
▁getDigit	-14.4734
▁getHour	-14.4734
▁getInternational	-14.4734
▁getLeastMaximum	-14.4734
▁getMenuDisabled	-14.4734
▁getPerm	-14.4734
▁getRawUserInfo	-14.4734
▁getRender	-14.4734
▁getResolution	-14.4734
▁getTargetActions	-14.4734
▁getUsername	-14.4734
▁getWaitedCount	-14.4734
▁hasBeen	-14.4734
▁helpDelete	-14.4734
▁hitEnd	-14.4734
▁implTest	-14.4734
▁isDescendant	-14.4734
▁isTransformed	-14.4734
▁isVolatile	-14.4734
▁iz	-14.4734
▁jaxBehavior	-14.4734
▁lastTabInRun	-14.4734
▁loNode	-14.4734
▁maybeUpdate	-14.4734
▁newMXBeanProxy	-14.4734
▁oopback	-14.4734
▁opagatedFrom	-14.4734
▁ptimized	-14.4734
▁reader	-14.4734
▁sByMIMEType	-14.4734
▁same	-14.4734
▁ser	-14.4734
▁setDesktop	-14.4734
▁setDoubleBuffer	-14.4734
▁setLayeredPane	-14.4734
▁setMultiple	-14.4734
▁setStatus	-14.4734
▁setToolTipTextAt	-14.4734
▁setUpdate	-14.4734
▁sing	-14.4734
▁width	-14.4734
▁16(	-14.4892
▁ActionChanged	-14.4892
▁Aver	-14.4892
▁BasicImage	-14.4892
▁CSSBorder	-14.4892
▁Calls	-14.4892
▁CaretPolicy	-14.4892
▁ClassType	-14.4892
▁Config	-14.4892
▁Des	-14.4892
▁Dis	-14.4892
▁EditorPane	-14.4892
▁Equal	-14.4892
▁Flip	-14.4892
▁GLProfile	-14.4892
▁IdleWorkers	-14.4892
▁InitialValue	-14.4892
▁KeyLength	-14.4892
▁LayerII	-14.4892
▁MXBean	-14.4892
▁Membership	-14.4892
▁Msg	-14.4892
▁Muxing	-14.4892
▁Ob	-14.4892
▁OptionPane	-14.4892
▁Pow	-14.4892
▁PreviewPanel	-14.4892
▁Procedure	-14.4892
▁SQLTransaction	-14.4892
▁Scheduler	-14.4892
▁SelectedTab	-14.4892
▁ServicesPeer	-14.4892
▁StAXSource	-14.4892
▁Utf	-14.4892
▁ally	-14.4892
▁aph	-14.4892
▁appendT	-14.4892
▁arbage	-14.4892
▁ccess	-14.4892
▁checkB	-14.4892
▁checkedList	-14.4892
▁color	-14.4892
▁createPrintJob	-14.4892
▁dEvent	-14.4892
▁decrIndent	-14.4892
▁ecution	-14.4892
▁edEx	-14.4892
▁eferral	-14.4892
▁endJavaBridge	-14.4892
▁enum	-14.4892
▁erm	-14.4892
▁escapeValue	-14.4892
▁exportAsDrag	-14.4892
▁findVirtual	-14.4892
▁fireIndexed	-14.4892
▁getBox	-14.4892
▁getEngineBy	-14.4892
▁getGridColor	-14.4892
▁getOpenType	-14.4892
▁getRowsForPaths	-14.4892
▁getSchemaClass	-14.4892
▁getSt	-14.4892
▁header	-14.4892
▁hic	-14.4892
▁icon	-14.4892
▁iled	-14.4892
▁interval	-14.4892
▁isSuspended	-14.4892
▁label	-14.4892
▁lowerEntry	-14.4892
▁mappedName	-14.4892
▁notExists	-14.4892
▁ollapsed	-14.4892
▁orized	-14.4892
▁oxy	-14.4892
▁parency	-14.4892
▁prepareJava	-14.4892
▁real	-14.4892
▁rehash	-14.4892
▁resetM	-14.4892
▁rossing	-14.4892
▁setAngle	-14.4892
▁setAs	-14.4892
▁setCaret	-14.4892
▁setCountLimit	-14.4892
▁setFaultString	-14.4892
▁setSubscript	-14.4892
▁side	-14.4892
▁stringToColor	-14.4892
▁ultiplier	-14.4892
▁visitExecutable	-14.4892
▁visitPrimitive	-14.4892
▁writeUnlock	-14.4892
▁AWTE	-14.5052
▁Bounded	-14.5052
▁Decomposition	-14.5052
▁Expansion	-14.5052
▁GB	-14.5052
▁II	-14.5052
▁ST	-14.5052
▁Severity	-14.5052
▁Surrogate	-14.5052
▁ack	-14.5052
▁ata	-14.5052
▁cent	-14.5052
▁egistry	-14.5052
▁focus	-14.5052
▁getEnum	-14.5052
▁io	-14.5052
▁less	-14.5052
▁nameVerifier	-14.5052
▁ne	-14.5052
▁newS	-14.5052
▁ove	-14.5052
▁Alpha	-14.5215
▁Borders	-14.5215
▁Cancel	-14.5215
▁Compression	-14.5215
▁Fill	-14.5215
▁Matches	-14.5215
▁Minimum	-14.5215
▁Reco	-14.5215
▁Same	-14.5215
▁Weight	-14.5215
▁WhiteSpace	-14.5215
▁aData	-14.5215
▁ampleModel	-14.5215
▁ands	-14.5215
▁ery	-14.5215
▁escape	-14.5215
▁getTrustAnchor	-14.5215
▁hase	-14.5215
▁ire	-14.5215
▁izing	-14.5215
▁pl	-14.5215
▁rigger	-14.5215
▁ription	-14.5215
▁Alg	-14.538
▁Into	-14.538
▁Library	-14.538
▁Lowest	-14.538
▁RootPaneUI	-14.538
▁Search	-14.538
▁abort	-14.538
▁appContext	-14.538
▁dec	-14.538
▁def	-14.538
▁econdary	-14.538
▁erivedGauge	-14.538
▁getBlocked	-14.538
▁getLower	-14.538
▁getXML	-14.538
▁ging	-14.538
▁ierarchy	-14.538
▁lop	-14.538
▁mitter	-14.538
▁oderResult	-14.538
▁Ca	-14.5548
▁Cause	-14.5548
▁Filled	-14.5548
▁KeyUsage	-14.5548
▁Stat	-14.5548
▁Static	-14.5548
▁Week	-14.5548
▁adCurve	-14.5548
▁attern	-14.5548
▁crete	-14.5548
▁ear	-14.5548
▁ermin	-14.5548
▁getThread	-14.5548
▁iftDown	-14.5548
▁igh	-14.5548
▁imumSize	-14.5548
▁ispatch	-14.5548
▁justable	-14.5548
▁vok	-14.5548
▁APublic	-14.5719
▁Dir	-14.5719
▁Execute	-14.5719
▁Found	-14.5719
▁Heavy	-14.5719
▁Obj	-14.5719
▁Transient	-14.5719
▁Transl	-14.5719
▁ancel	-14.5719
▁ged	-14.5719
▁getArc	-14.5719
▁ield	-14.5719
▁isName	-14.5719
▁location	-14.5719
▁losed	-14.5719
▁nection	-14.5719
▁ortedKeys	-14.5719
▁orthPane	-14.5719
▁pace	-14.5719
▁tected	-14.5719
▁Compilation	-14.5893
▁Do	-14.5893
▁Expired	-14.5893
▁FormatName	-14.5893
▁Idle	-14.5893
▁Localized	-14.5893
▁Ma	-14.5893
▁Notify	-14.5893
▁Parse	-14.5893
▁SliderUI	-14.5893
▁Stop	-14.5893
▁TF	-14.5893
▁Watch	-14.5893
▁ace	-14.5893
▁actor	-14.5893
▁addIssuer	-14.5893
▁ave	-14.5893
▁east	-14.5893
▁hite	-14.5893
▁ification	-14.5893
▁ingZer	-14.5893
▁justment	-14.5893
▁nail	-14.5893
▁notated	-14.5893
▁plitPane	-14.5893
▁setEx	-14.5893
▁urrent	-14.5893
▁voker	-14.5893
▁LanguageTag	-14.607
▁Occu	-14.607
▁Released	-14.607
▁clude	-14.607
▁ected	-14.607
▁eed	-14.607
▁form	-14.607
▁geable	-14.607
▁getAccess	-14.607
▁getPer	-14.607
▁identity	-14.607
▁ingAllowed	-14.607
▁ivileged	-14.607
▁model	-14.607
▁oale	-14.607
▁orm	-14.607
▁rem	-14.607
▁tachments	-14.607
▁tack	-14.607
▁toInt	-14.607
▁trosp	-14.607
▁ular	-14.607
▁utdown	-14.607
▁was	-14.607
▁CharAt	-14.625
▁DesktopPane	-14.625
▁GlassPane	-14.625
▁Loc	-14.625
▁Uns	-14.625
▁ault	-14.625
▁column	-14.625
▁context	-14.625
▁efix	-14.625
▁eight	-14.625
▁estination	-14.625
▁fa	-14.625
▁ied	-14.625
▁irror	-14.625
▁ited	-14.625
▁ta	-14.625
▁tra	-14.625
▁ust	-14.625
▁Broad	-14.6433
▁ContentType	-14.6433
▁DB	-14.6433
▁Family	-14.6433
▁Hand	-14.6433
▁Resize	-14.6433
▁SL	-14.6433
▁aN	-14.6433
▁atisfied	-14.6433
▁bo	-14.6433
▁cket	-14.6433
▁clEntry	-14.6433
▁define	-14.6433
▁ecret	-14.6433
▁eferences	-14.6433
▁ffix	-14.6433
▁getNot	-14.6433
▁gral	-14.6433
▁ivider	-14.6433
▁legal	-14.6433
▁opagationId	-14.6433
▁structor	-14.6433
▁toRGB	-14.6433
▁umb	-14.6433
▁ClientMode	-14.662
▁Handlers	-14.662
▁NodeFor	-14.662
▁Thres	-14.662
▁ccessor	-14.662
▁getSQL	-14.662
▁gor	-14.662
▁imitive	-14.662
▁nD	-14.662
▁oft	-14.662
▁ppl	-14.662
▁reject	-14.662
▁toASCII	-14.662
▁ug	-14.662
▁ush	-14.662
▁Disp	-14.6811
▁Fr	-14.6811
▁Minor	-14.6811
▁Outer	-14.6811
▁QLException	-14.6811
▁SQLInput	-14.6811
▁Styled	-14.6811
▁annotation	-14.6811
▁com	-14.6811
▁erge	-14.6811
▁ermission	-14.6811
▁getSpec	-14.6811
▁getWaited	-14.6811
▁imum	-14.6811
▁irtual	-14.6811
▁opup	-14.6811
▁orTick	-14.6811
▁pring	-14.6811
▁stru	-14.6811
▁ware	-14.6811
▁ypes	-14.6811
▁FontFamily	-14.7005
▁Subclass	-14.7005
▁Typed	-14.7005
▁bsolutePath	-14.7005
▁che	-14.7005
▁der	-14.7005
▁eferredSize	-14.7005
▁fter	-14.7005
▁getVisual	-14.7005
▁isLocal	-14.7005
▁ivision	-14.7005
▁ling	-14.7005
▁mount	-14.7005
▁ok	-14.7005
▁sA	-14.7005
▁totype	-14.7005
▁Equ	-14.7203
▁Folder	-14.7203
▁Major	-14.7203
▁Observers	-14.7203
▁Poly	-14.7203
▁Seed	-14.7203
▁Verbose	-14.7203
▁atform	-14.7203
▁endor	-14.7203
▁ervlet	-14.7203
▁fer	-14.7203
▁getLogical	-14.7203
▁hared	-14.7203
▁iod	-14.7203
▁isB	-14.7203
▁jj	-14.7203
▁runFinal	-14.7203
▁tity	-14.7203
▁trol	-14.7203
▁ularType	-14.7203
▁yper	-14.7203
▁Clear	-14.7405
▁Dest	-14.7405
▁addText	-14.7405
▁alr	-14.7405
▁cal	-14.7405
▁dition	-14.7405
▁efore	-14.7405
▁essed	-14.7405
▁fatal	-14.7405
▁getLeft	-14.7405
▁ibility	-14.7405
▁icast	-14.7405
▁isAc	-14.7405
▁isT	-14.7405
▁our	-14.7405
▁setA	-14.7405
▁stant	-14.7405
▁Batch	-14.7611
▁Caches	-14.7611
▁Exit	-14.7611
▁Fractional	-14.7611
▁HTMLFactory	-14.7611
▁Jav	-14.7611
▁Micr	-14.7611
▁Mult	-14.7611
▁Sequ	-14.7611
▁TR	-14.7611
▁ader	-14.7611
▁anged	-14.7611
▁aseline	-14.7611
▁ebugGraphics	-14.7611
▁edType	-14.7611
▁ernal	-14.7611
▁getNon	-14.7611
▁getResult	-14.7611
▁getSp	-14.7611
▁lar	-14.7611
▁ln	-14.7611
▁nd	-14.7611
▁ontinuation	-14.7611
▁plicit	-14.7611
▁ym	-14.7611
▁yperlink	-14.7611
▁BCSS	-14.7822
▁Counter	-14.7822
▁Ignor	-14.7822
▁OnExit	-14.7822
▁Scheme	-14.7822
▁ToL	-14.7822
▁WillExpand	-14.7822
▁aces	-14.7822
▁ceiver	-14.7822
▁cel	-14.7822
▁declared	-14.7822
▁earch	-14.7822
▁eavy	-14.7822
▁empl	-14.7822
▁eque	-14.7822
▁ertificate	-14.7822
▁getBit	-14.7822
▁getCenter	-14.7822
▁getUpper	-14.7822
▁herited	-14.7822
▁inarySearch	-14.7822
▁ish	-14.7822
▁isplay	-14.7822
▁ission	-14.7822
▁leep	-14.7822
▁pplication	-14.7822
▁toD	-14.7822
▁Cle	-14.8037
▁Decoration	-14.8037
▁Installed	-14.8037
▁Ocean	-14.8037
▁Owned	-14.8037
▁Strip	-14.8037
▁Trail	-14.8037
▁Validate	-14.8037
▁af	-14.8037
▁ake	-14.8037
▁angu	-14.8037
▁aret	-14.8037
▁aster	-14.8037
▁ecutable	-14.8037
▁erCase	-14.8037
▁etermin	-14.8037
▁etwork	-14.8037
▁fr	-14.8037
▁ilable	-14.8037
▁newX	-14.8037
▁odifier	-14.8037
▁oop	-14.8037
▁setPopup	-14.8037
▁Auth	-14.8257
▁Bump	-14.8257
▁CardTermin	-14.8257
▁Frames	-14.8257
▁InRun	-14.8257
▁OnTop	-14.8257
▁Significant	-14.8257
▁arator	-14.8257
▁erv	-14.8257
▁getAs	-14.8257
▁getCom	-14.8257
▁getMap	-14.8257
▁getRead	-14.8257
▁ile	-14.8257
▁ipe	-14.8257
▁just	-14.8257
▁losest	-14.8257
▁ollover	-14.8257
▁ompt	-14.8257
▁ull	-14.8257
▁ways	-14.8257
▁Cach	-14.8481
▁TabInRun	-14.8481
▁Used	-14.8481
▁Visual	-14.8481
▁ariant	-14.8481
▁ating	-14.8481
▁ative	-14.8481
▁ender	-14.8481
▁etoable	-14.8481
▁ffect	-14.8481
▁getLog	-14.8481
▁getSig	-14.8481
▁inv	-14.8481
▁ist	-14.8481
▁readUn	-14.8481
▁resh	-14.8481
▁setLeft	-14.8481
▁uce	-14.8481
▁yclic	-14.8481
▁ynchronous	-14.8481
▁0.	-14.8711
▁7	-14.8711
▁Factor	-14.8711
▁ForkJoin	-14.8711
▁MIMEType	-14.8711
▁Numeric	-14.8711
▁StrikeThrough	-14.8711
▁Termin	-14.8711
▁ajor	-14.8711
▁break	-14.8711
▁canner	-14.8711
▁checkValid	-14.8711
▁equ	-14.8711
▁erver	-14.8711
▁getDesc	-14.8711
▁istered	-14.8711
▁ke	-14.8711
▁ken	-14.8711
▁ler	-14.8711
▁oice	-14.8711
▁reg	-14.8711
▁requ	-14.8711
▁setEnd	-14.8711
▁setStart	-14.8711
▁ynam	-14.8711
▁Core	-14.8947
▁Grouping	-14.8947
▁Man	-14.8947
▁Period	-14.8947
▁Rate	-14.8947
▁UITest	-14.8947
▁bc	-14.8947
▁cr	-14.8947
▁del	-14.8947
▁encer	-14.8947
▁esizer	-14.8947
▁getThumb	-14.8947
▁inter	-14.8947
▁isMember	-14.8947
▁odes	-14.8947
▁odifiable	-14.8947
▁ould	-14.8947
▁perform	-14.8947
▁ro	-14.8947
▁using	-14.8947
▁vent	-14.8947
▁vider	-14.8947
▁vis	-14.8947
▁warding	-14.8947
▁Absent	-14.9188
▁Are	-14.9188
▁FormAction	-14.9188
▁Ldap	-14.9188
▁Loaded	-14.9188
▁Produ	-14.9188
▁SQLOutput	-14.9188
▁ancelled	-14.9188
▁ingHint	-14.9188
▁isFlavor	-14.9188
▁method	-14.9188
▁opies	-14.9188
▁protected	-14.9188
▁rag	-14.9188
▁setV	-14.9188
▁weight	-14.9188
▁Cancelled	-14.9434
▁Coll	-14.9434
▁Compatible	-14.9434
▁Compound	-14.9434
▁Detail	-14.9434
▁IM	-14.9434
▁NotYet	-14.9434
▁Overflow	-14.9434
▁PowerOfT	-14.9434
▁TopLevel	-14.9434
▁Union	-14.9434
▁ait	-14.9434
▁daysIn	-14.9434
▁ector	-14.9434
▁eet	-14.9434
▁erived	-14.9434
▁getBreak	-14.9434
▁getDragged	-14.9434
▁getEditing	-14.9434
▁ible	-14.9434
▁icAttribute	-14.9434
▁mDNSImpl	-14.9434
▁ond	-14.9434
▁orth	-14.9434
▁par	-14.9434
▁pth	-14.9434
▁rayIcon	-14.9434
▁rr	-14.9434
▁tBuffer	-14.9434
▁terator	-14.9434
▁ultiply	-14.9434
▁unction	-14.9434
▁yp	-14.9434
▁Constrained	-14.9688
▁Defined	-14.9688
▁El	-14.9688
▁Feed	-14.9688
▁MixedCase	-14.9688
▁ReadTimeout	-14.9688
▁acity	-14.9688
▁bot	-14.9688
▁checkFor	-14.9688
▁cheduled	-14.9688
▁date	-14.9688
▁dit	-14.9688
▁getDe	-14.9688
▁sTo	-14.9688
▁ublic	-14.9688
▁uperscript	-14.9688
▁Args	-14.9947
▁EndDocument	-14.9947
▁Grab	-14.9947
▁Millis	-14.9947
▁Observed	-14.9947
▁Power	-14.9947
▁Strict	-14.9947
▁edException	-14.9947
▁ength	-14.9947
▁getOrigin	-14.9947
▁ioButton	-14.9947
▁isRow	-14.9947
▁osedText	-14.9947
▁ox	-14.9947
▁prop	-14.9947
▁sect	-14.9947
▁Based	-15.0214
▁Flat	-15.0214
▁OfT	-15.0214
▁Overlay	-15.0214
▁Tick	-15.0214
▁aint	-15.0214
▁anded	-15.0214
▁crypted	-15.0214
▁down	-15.0214
▁fin	-15.0214
▁fl	-15.0214
▁getDeleg	-15.0214
▁indingRule	-15.0214
▁pper	-15.0214
▁setExt	-15.0214
▁tries	-15.0214
▁writeUn	-15.0214
▁ys	-15.0214
▁Css	-15.0488
▁Extent	-15.0488
▁Gener	-15.0488
▁Notifications	-15.0488
▁Phase	-15.0488
▁Seconds	-15.0488
▁ToCSS	-15.0488
▁Touch	-15.0488
▁asic	-15.0488
▁asl	-15.0488
▁ctive	-15.0488
▁getPrime	-15.0488
▁image	-15.0488
▁isF	-15.0488
▁ivide	-15.0488
▁loor	-15.0488
▁od	-15.0488
▁rel	-15.0488
▁top	-15.0488
▁Flow	-15.077
▁OrDigit	-15.077
▁Qual	-15.077
▁Work	-15.077
▁alle	-15.077
▁ans	-15.077
▁aw	-15.077
▁bstring	-15.077
▁cheduler	-15.077
▁createTemp	-15.077
▁eak	-15.077
▁eference	-15.077
▁eth	-15.077
▁evious	-15.077
▁icrosecond	-15.077
▁isH	-15.077
▁isV	-15.077
▁mouse	-15.077
▁ostic	-15.077
▁ral	-15.077
▁rite	-15.077
▁strument	-15.077
▁tml	-15.077
▁ued	-15.077
▁AndWait	-15.106
▁Cap	-15.106
▁CharsPerByte	-15.106
▁Gained	-15.106
▁ShortcutKey	-15.106
▁Unm	-15.106
▁Waiting	-15.106
▁ais	-15.106
▁ame	-15.106
▁attribute	-15.106
▁ayer	-15.106
▁ble	-15.106
▁closing	-15.106
▁col	-15.106
▁dent	-15.106
▁etch	-15.106
▁getHTML	-15.106
▁hold	-15.106
▁ild	-15.106
▁ime	-15.106
▁isDisplay	-15.106
▁ision	-15.106
▁itial	-15.106
▁ole	-15.106
▁pon	-15.106
▁selected	-15.106
▁setAc	-15.106
▁sig	-15.106
▁ssert	-15.106
▁tachment	-15.106
▁ty	-15.106
▁uth	-15.106
▁Anim	-15.1358
▁Assertion	-15.1358
▁BigEndian	-15.1358
▁ComboBoxUI	-15.1358
▁DesktopIcon	-15.1358
▁Refer	-15.1358
▁Shown	-15.1358
▁ava	-15.1358
▁bytes	-15.1358
▁ceiv	-15.1358
▁ectangle	-15.1358
▁epaint	-15.1358
▁erefLinkFlag	-15.1358
▁getAt	-15.1358
▁hs	-15.1358
▁isFloat	-15.1358
▁isVar	-15.1358
▁issing	-15.1358
▁known	-15.1358
▁napToTicks	-15.1358
▁ock	-15.1358
▁ption	-15.1358
▁tar	-15.1358
▁toHex	-15.1358
▁unm	-15.1358
▁usted	-15.1358
▁AA	-15.1666
▁Amount	-15.1666
▁BytesPerChar	-15.1666
▁CO	-15.1666
▁Cred	-15.1666
▁Del	-15.1666
▁Dragged	-15.1666
▁Im	-15.1666
▁LowerCase	-15.1666
▁Navigable	-15.1666
▁Rea	-15.1666
▁StAX	-15.1666
▁Strokes	-15.1666
▁Tracker	-15.1666
▁bsolute	-15.1666
▁card	-15.1666
▁ceptAll	-15.1666
▁efer	-15.1666
▁ell	-15.1666
▁ename	-15.1666
▁enc	-15.1666
▁endant	-15.1666
▁getAc	-15.1666
▁getNumeric	-15.1666
▁imary	-15.1666
▁inal	-15.1666
▁inary	-15.1666
▁ingZeros	-15.1666
▁isMax	-15.1666
▁lector	-15.1666
▁plicate	-15.1666
▁tract	-15.1666
▁,?	-15.1983
▁DirtyRegion	-15.1983
▁Fully	-15.1983
▁IndexOf	-15.1983
▁JavaFile	-15.1983
▁Module	-15.1983
▁Ori	-15.1983
▁atable	-15.1983
▁az	-15.1983
▁ection	-15.1983
▁etic	-15.1983
▁getSync	-15.1983
▁getTrusted	-15.1983
▁getValid	-15.1983
▁inder	-15.1983
▁ivate	-15.1983
▁ively	-15.1983
▁odulus	-15.1983
▁ontain	-15.1983
▁ordinary	-15.1983
▁ority	-15.1983
▁rypto	-15.1983
▁sInvalid	-15.1983
▁setAuth	-15.1983
▁setB	-15.1983
▁setEvent	-15.1983
▁troy	-15.1983
▁uild	-15.1983
▁usSign	-15.1983
▁ution	-15.1983
▁40	-15.2311
▁CA	-15.2311
▁ExemptionBlob	-15.2311
▁Fraction	-15.2311
▁IO	-15.2311
▁Indeterminate	-15.2311
▁Keep	-15.2311
▁LoadedClass	-15.2311
▁Network	-15.2311
▁Obs	-15.2311
▁Outgoing	-15.2311
▁Signers	-15.2311
▁Soft	-15.2311
▁Stri	-15.2311
▁Ur	-15.2311
▁ark	-15.2311
▁ase	-15.2311
▁chronous	-15.2311
▁coder	-15.2311
▁ediaSizeName	-15.2311
▁getWarning	-15.2311
▁head	-15.2311
▁holds	-15.2311
▁ip	-15.2311
▁isInter	-15.2311
▁istration	-15.2311
▁mall	-15.2311
▁oun	-15.2311
▁oxPrecision	-15.2311
▁ponse	-15.2311
▁reco	-15.2311
▁sw	-15.2311
▁xce	-15.2311
▁CS	-15.265
▁Decomp	-15.265
▁DeltaList	-15.265
▁Interaction	-15.265
▁Javancss	-15.265
▁LL	-15.265
▁Mechanism	-15.265
▁Opaque	-15.265
▁RTF	-15.265
▁RowIndex	-15.265
▁ag	-15.265
▁ber	-15.265
▁dBorder	-15.265
▁egion	-15.265
▁eleg	-15.265
▁equestFocus	-15.265
▁ested	-15.265
▁getLowest	-15.265
▁ibling	-15.265
▁ior	-15.265
▁isCase	-15.265
▁isControl	-15.265
▁ld	-15.265
▁oalescing	-15.265
▁ocks	-15.265
▁older	-15.265
▁plit	-15.265
▁rough	-15.265
▁ule	-15.265
▁unc	-15.265
▁AF	-15.3001
▁Addr	-15.3001
▁Arr	-15.3001
▁CR	-15.3001
▁CssValue	-15.3001
▁Decoder	-15.3001
▁Det	-15.3001
▁Exclu	-15.3001
▁ForPath	-15.3001
▁GeneratedKeys	-15.3001
▁Ticks	-15.3001
▁abilities	-15.3001
▁ape	-15.3001
▁atal	-15.3001
▁be	-15.3001
▁cript	-15.3001
▁ean	-15.3001
▁ff	-15.3001
▁getAbsolute	-15.3001
▁getDataLine	-15.3001
▁getHighl	-15.3001
▁getUIClass	-15.3001
▁iate	-15.3001
▁ient	-15.3001
▁mutable	-15.3001
▁nector	-15.3001
▁setLogger	-15.3001
▁tal	-15.3001
▁uct	-15.3001
▁ulation	-15.3001
▁CharArray	-15.3365
▁ExpandEntity	-15.3365
▁Horiz	-15.3365
▁Mapp	-15.3365
▁Necessary	-15.3365
▁OF	-15.3365
▁Par	-15.3365
▁Zer	-15.3365
▁adow	-15.3365
▁ale	-15.3365
▁ays	-15.3365
▁checkIn	-15.3365
▁dbc	-15.3365
▁eable	-15.3365
▁ension	-15.3365
▁etStream	-15.3365
▁forward	-15.3365
▁getPathTo	-15.3365
▁gu	-15.3365
▁imized	-15.3365
▁isp	-15.3365
▁iss	-15.3365
▁lashScreen	-15.3365
▁olatile	-15.3365
▁readS	-15.3365
▁tocol	-15.3365
▁zone	-15.3365
▁AX	-15.3742
▁Analyzer	-15.3742
▁Executable	-15.3742
▁Huffman	-15.3742
▁IP	-15.3742
▁Permits	-15.3742
▁Platform	-15.3742
▁Subscript	-15.3742
▁Synchron	-15.3742
▁aj	-15.3742
▁atte	-15.3742
▁enabled	-15.3742
▁haser	-15.3742
▁ib	-15.3742
▁idi	-15.3742
▁igid	-15.3742
▁ignTime	-15.3742
▁ignature	-15.3742
▁ildcard	-15.3742
▁leg	-15.3742
▁norm	-15.3742
▁onM	-15.3742
▁ross	-15.3742
▁Closing	-15.4134
▁Col	-15.4134
▁Encode	-15.4134
▁IncludeAware	-15.4134
▁Logg	-15.4134
▁Own	-15.4134
▁PrimeInfo	-15.4134
▁Sensitive	-15.4134
▁Sorter	-15.4134
▁Trace	-15.4134
▁WI	-15.4134
▁WTEvent	-15.4134
▁ampl	-15.4134
▁aphore	-15.4134
▁apitalize	-15.4134
▁aretPosition	-15.4134
▁ater	-15.4134
▁cept	-15.4134
▁edia	-15.4134
▁estore	-15.4134
▁eturn	-15.4134
▁fig	-15.4134
▁getCtrl	-15.4134
▁inverse	-15.4134
▁isAlt	-15.4134
▁look	-15.4134
▁losing	-15.4134
▁mart	-15.4134
▁odu	-15.4134
▁readth	-15.4134
▁sWith	-15.4134
▁setValid	-15.4134
▁sl	-15.4134
▁talic	-15.4134
▁ype	-15.4134
▁AFState	-15.4543
▁Comm	-15.4543
▁DoubleBuffered	-15.4543
▁InMillis	-15.4543
▁LayeredPane	-15.4543
▁MID	-15.4543
▁MLEvent	-15.4543
▁Que	-15.4543
▁Rem	-15.4543
▁Rotation	-15.4543
▁antsInput	-15.4543
▁aper	-15.4543
▁avig	-15.4543
▁board	-15.4543
▁edProperty	-15.4543
▁ersist	-15.4543
▁fined	-15.4543
▁getShear	-15.4543
▁hrown	-15.4543
▁lipse	-15.4543
▁notate	-15.4543
▁readGeneric	-15.4543
▁setRound	-15.4543
▁super	-15.4543
▁tain	-15.4543
▁teration	-15.4543
▁umeric	-15.4543
▁ved	-15.4543
▁AP	-15.4968
▁ButtonArea	-15.4968
▁EA	-15.4968
▁Surr	-15.4968
▁TMLEditorKit	-15.4968
▁WA	-15.4968
▁ailed	-15.4968
▁cestor	-15.4968
▁checkN	-15.4968
▁ectang	-15.4968
▁ens	-15.4968
▁ific	-15.4968
▁mitted	-15.4968
▁neg	-15.4968
▁nel	-15.4968
▁onster	-15.4968
▁orted	-15.4968
▁oscrolls	-15.4968
▁pported	-15.4968
▁rupt	-15.4968
▁ures	-15.4968
▁view	-15.4968
▁vocation	-15.4968
▁20	-15.5413
▁Ag	-15.5413
▁Dereferencer	-15.5413
▁EditValid	-15.5413
▁InstanceOf	-15.5413
▁OptionDialog	-15.5413
▁SetBit	-15.5413
▁Shadow	-15.5413
▁SliderThumb	-15.5413
▁SpinnerUI	-15.5413
▁aved	-15.5413
▁compose	-15.5413
▁ecision	-15.5413
▁elp	-15.5413
▁emTest	-15.5413
▁ened	-15.5413
▁epaintManager	-15.5413
▁ete	-15.5413
▁ffine	-15.5413
▁getMe	-15.5413
▁go	-15.5413
▁ightweight	-15.5413
▁ility	-15.5413
▁inst	-15.5413
▁ipher	-15.5413
▁isAssignable	-15.5413
▁leave	-15.5413
▁onth	-15.5413
▁ou	-15.5413
▁pproveButton	-15.5413
▁rect	-15.5413
▁setDialog	-15.5413
▁trics	-15.5413
▁Co	-15.5878
▁Gauge	-15.5878
▁Interop	-15.5878
▁Now	-15.5878
▁Recogn	-15.5878
▁Require	-15.5878
▁Specifier	-15.5878
▁ToArray	-15.5878
▁ZeroDigit	-15.5878
▁activeGroup	-15.5878
▁asteAction	-15.5878
▁chema	-15.5878
▁dis	-15.5878
▁emporary	-15.5878
▁epeats	-15.5878
▁fast	-15.5878
▁getActive	-15.5878
▁getMaxColumn	-15.5878
▁imal	-15.5878
▁irect	-15.5878
▁lazy	-15.5878
▁lob	-15.5878
▁mDNS	-15.5878
▁oding	-15.5878
▁orld	-15.5878
▁oup	-15.5878
▁ours	-15.5878
▁pinner	-15.5878
▁rawing	-15.5878
▁riter	-15.5878
▁slash	-15.5878
▁Abort	-15.6366
▁Chunk	-15.6366
▁ClearBit	-15.6366
▁DayOf	-15.6366
▁Decrement	-15.6366
▁HI	-15.6366
▁Months	-15.6366
▁Ret	-15.6366
▁Screen	-15.6366
▁Sol	-15.6366
▁TE	-15.6366
▁Web	-15.6366
▁atalog	-15.6366
▁days	-15.6366
▁eadless	-15.6366
▁emplates	-15.6366
▁evocation	-15.6366
▁getPrinter	-15.6366
▁gr	-15.6366
▁ifier	-15.6366
▁igit	-15.6366
▁itle	-15.6366
▁lash	-15.6366
▁nemon	-15.6366
▁sor	-15.6366
▁str	-15.6366
▁ublish	-15.6366
▁utable	-15.6366
▁Altern	-15.6879
▁AndCheck	-15.6879
▁ControlWord	-15.6879
▁EP	-15.6879
▁InputDialog	-15.6879
▁MIME	-15.6879
▁Ph	-15.6879
▁StateHelper	-15.6879
▁Suite	-15.6879
▁actory	-15.6879
▁alformedInput	-15.6879
▁anonical	-15.6879
▁antiate	-15.6879
▁eap	-15.6879
▁edefined	-15.6879
▁eterminate	-15.6879
▁getDraw	-15.6879
▁havior	-15.6879
▁isOutput	-15.6879
▁lay	-15.6879
▁owing	-15.6879
▁pplementary	-15.6879
▁reation	-15.6879
▁rypt	-15.6879
▁system	-15.6879
▁toU	-15.6879
▁ub	-15.6879
▁BCS	-15.742
▁Descent	-15.742
▁MTOM	-15.742
▁Notified	-15.742
▁Priv	-15.742
▁TabbedPane	-15.742
▁acLength	-15.742
▁adient	-15.742
▁apter	-15.742
▁ates	-15.742
▁eric	-15.742
▁flow	-15.742
▁ful	-15.742
▁getBy	-15.742
▁getIs	-15.742
▁getSocket	-15.742
▁hand	-15.742
▁isI	-15.742
▁isPath	-15.742
▁isPro	-15.742
▁istance	-15.742
▁ived	-15.742
▁oly	-15.742
▁reat	-15.742
▁ru	-15.742
▁ward	-15.742
▁Fonts	-15.7991
▁Instant	-15.7991
▁Rec	-15.7991
▁ToSize	-15.7991
▁TrustManagers	-15.7991
▁Val	-15.7991
▁addChild	-15.7991
▁alt	-15.7991
▁aming	-15.7991
▁ased	-15.7991
▁atible	-15.7991
▁ax	-15.7991
▁backHandler	-15.7991
▁contents	-15.7991
▁egorian	-15.7991
▁ext	-15.7991
▁iated	-15.7991
▁ices	-15.7991
▁imer	-15.7991
▁isU	-15.7991
▁ities	-15.7991
▁ives	-15.7991
▁mpt	-15.7991
▁og	-15.7991
▁param	-15.7991
▁shake	-15.7991
▁suers	-15.7991
▁velop	-15.7991
▁AS	-15.8597
▁Atomic	-15.8597
▁Big	-15.8597
▁CSSAttribute	-15.8597
▁Catalog	-15.8597
▁Declar	-15.8597
▁Delimit	-15.8597
▁Entered	-15.8597
▁Exce	-15.8597
▁Exist	-15.8597
▁Exited	-15.8597
▁Ids	-15.8597
▁Include	-15.8597
▁Ne	-15.8597
▁Normal	-15.8597
▁Painted	-15.8597
▁Qualified	-15.8597
▁Virtual	-15.8597
▁Within	-15.8597
▁efinition	-15.8597
▁engineDo	-15.8597
▁entic	-15.8597
▁entication	-15.8597
▁ey	-15.8597
▁finity	-15.8597
▁getOut	-15.8597
▁getRun	-15.8597
▁ias	-15.8597
▁icksort	-15.8597
▁mediate	-15.8597
▁olation	-15.8597
▁ottom	-15.8597
▁pression	-15.8597
▁scaledValue	-15.8597
▁setSystem	-15.8597
▁tched	-15.8597
▁yy	-15.8597
▁Dynamic	-15.9243
▁Fil	-15.9243
▁Italic	-15.9243
▁Mea	-15.9243
▁PreferredGap	-15.9243
▁TableUI	-15.9243
▁ToLeft	-15.9243
▁UrgentData	-15.9243
▁Will	-15.9243
▁alize	-15.9243
▁ceive	-15.9243
▁cheme	-15.9243
▁econds	-15.9243
▁ensitive	-15.9243
▁getMet	-15.9243
▁ibrary	-15.9243
▁imple	-15.9243
▁ixer	-15.9243
▁ogate	-15.9243
▁ork	-15.9243
▁ouse	-15.9243
▁produ	-15.9243
▁ster	-15.9243
▁uffman	-15.9243
▁Activ	-15.9933
▁Agreement	-15.9933
▁CH	-15.9933
▁Continu	-15.9933
▁Flatness	-15.9933
▁Inset	-15.9933
▁Lo	-15.9933
▁Mixed	-15.9933
▁Ops	-15.9933
▁Results	-15.9933
▁SE	-15.9933
▁SO	-15.9933
▁Site	-15.9933
▁StyleWord	-15.9933
▁Trav	-15.9933
▁Tray	-15.9933
▁Trigger	-15.9933
▁YZ	-15.9933
▁anges	-15.9933
▁cap	-15.9933
▁cessor	-15.9933
▁comment	-15.9933
▁ecu	-15.9933
▁edit	-15.9933
▁evice	-15.9933
▁gn	-15.9933
▁graph	-15.9933
▁gressMonitor	-15.9933
▁har	-15.9933
▁hitespace	-15.9933
▁incipal	-15.9933
▁isSelection	-15.9933
▁lot	-15.9933
▁movePoint	-15.9933
▁ndoableEdit	-15.9933
▁onitor	-15.9933
▁per	-15.9933
▁rap	-15.9933
▁ress	-15.9933
▁rity	-15.9933
▁scal	-15.9933
▁segment	-15.9933
▁sole	-15.9933
▁tem	-15.9933
▁Ab	-16.0674
▁AndF	-16.0674
▁Bind	-16.0674
▁Dashed	-16.0674
▁Ind	-16.0674
▁Instru	-16.0674
▁LE	-16.0674
▁MI	-16.0674
▁Rele	-16.0674
▁Savings	-16.0674
▁Specific	-16.0674
▁Warnings	-16.0674
▁White	-16.0674
▁ability	-16.0674
▁cope	-16.0674
▁cross	-16.0674
▁delta	-16.0674
▁getCreation	-16.0674
▁getUnit	-16.0674
▁ier	-16.0674
▁mbedded	-16.0674
▁olved	-16.0674
▁onent	-16.0674
▁onymous	-16.0674
▁rc	-16.0674
▁setO	-16.0674
▁tribute	-16.0674
▁ubic	-16.0674
▁Alternative	-16.1474
▁Caller	-16.1474
▁Cas	-16.1474
▁DN	-16.1474
▁Daylight	-16.1474
▁Delimiter	-16.1474
▁EL	-16.1474
▁Jce	-16.1474
▁Minutes	-16.1474
▁RowHeight	-16.1474
▁SCII	-16.1474
▁SOAP	-16.1474
▁SystemClass	-16.1474
▁Tabb	-16.1474
▁Transformed	-16.1474
▁XYZ	-16.1474
▁ains	-16.1474
▁ceptable	-16.1474
▁cer	-16.1474
▁ctiv	-16.1474
▁deep	-16.1474
▁eek	-16.1474
▁eries	-16.1474
▁getBinary	-16.1474
▁getMember	-16.1474
▁getRec	-16.1474
▁getSu	-16.1474
▁getTrans	-16.1474
▁grab	-16.1474
▁gument	-16.1474
▁icate	-16.1474
▁ident	-16.1474
▁light	-16.1474
▁mulated	-16.1474
▁ned	-16.1474
▁ocable	-16.1474
▁oked	-16.1474
▁olve	-16.1474
▁omp	-16.1474
▁onymousClass	-16.1474
▁opagated	-16.1474
▁opy	-16.1474
▁pperCase	-16.1474
▁preced	-16.1474
▁reak	-16.1474
▁sManager	-16.1474
▁son	-16.1474
▁space	-16.1474
▁spend	-16.1474
▁tackTrace	-16.1474
▁uate	-16.1474
▁ulted	-16.1474
▁ultiple	-16.1474
▁vance	-16.1474
▁veTo	-16.1474
▁walk	-16.1474
▁Adding	-16.2344
▁Dead	-16.2344
▁ElementArray	-16.2344
▁Hel	-16.2344
▁Inverse	-16.2344
▁ML	-16.2344
▁Paralle	-16.2344
▁Roots	-16.2344
▁Slash	-16.2344
▁arg	-16.2344
▁canonical	-16.2344
▁cess	-16.2344
▁css	-16.2344
▁eom	-16.2344
▁essages	-16.2344
▁estart	-16.2344
▁etween	-16.2344
▁getSimple	-16.2344
▁ingle	-16.2344
▁stringTo	-16.2344
▁vailable	-16.2344
▁Bumps	-16.3297
▁Curve	-16.3297
▁ExpandedState	-16.3297
▁MBeans	-16.3297
▁Maximum	-16.3297
▁Press	-16.3297
▁Sequential	-16.3297
▁TextTest	-16.3297
▁WheelRotation	-16.3297
▁ahead	-16.3297
▁ank	-16.3297
▁atatype	-16.3297
▁calculateMax	-16.3297
▁checkParam	-16.3297
▁dge	-16.3297
▁eaf	-16.3297
▁ealedObject	-16.3297
▁eat	-16.3297
▁esting	-16.3297
▁getAct	-16.3297
▁hm	-16.3297
▁imbus	-16.3297
▁ious	-16.3297
▁irector	-16.3297
▁iring	-16.3297
▁isDispatch	-16.3297
▁ixel	-16.3297
▁loadFrom	-16.3297
▁los	-16.3297
▁lose	-16.3297
▁ocument	-16.3297
▁ookie	-16.3297
▁oriz	-16.3297
▁quad	-16.3297
▁tual	-16.3297
▁vir	-16.3297
▁war	-16.3297
▁Arrow	-16.4351
▁Asc	-16.4351
▁Ascent	-16.4351
▁CData	-16.4351
▁Chan	-16.4351
▁DU	-16.4351
▁Front	-16.4351
▁Lay	-16.4351
▁Modified	-16.4351
▁RandomAccess	-16.4351
▁Recognition	-16.4351
▁Workers	-16.4351
▁ackground	-16.4351
▁acking	-16.4351
▁acter	-16.4351
▁amily	-16.4351
▁ash	-16.4351
▁ational	-16.4351
▁au	-16.4351
▁display	-16.4351
▁eferred	-16.4351
▁ember	-16.4351
▁enate	-16.4351
▁ending	-16.4351
▁infer	-16.4351
▁irection	-16.4351
▁isMimeType	-16.4351
▁itor	-16.4351
▁lete	-16.4351
▁pprove	-16.4351
▁rapp	-16.4351
▁rit	-16.4351
▁setDi	-16.4351
▁ssign	-16.4351
▁tt	-16.4351
▁ttp	-16.4351
▁ture	-16.4351
▁uration	-16.4351
▁utes	-16.4351
▁uthorized	-16.4351
▁BinaryName	-16.5529
▁DaylightTime	-16.5529
▁Immediate	-16.5529
▁NA	-16.5529
▁NewLine	-16.5529
▁Prime	-16.5529
▁Unpack	-16.5529
▁addBody	-16.5529
▁ange	-16.5529
▁apped	-16.5529
▁arkShadow	-16.5529
▁art	-16.5529
▁chable	-16.5529
▁clu	-16.5529
▁culate	-16.5529
▁eam	-16.5529
▁ening	-16.5529
▁epare	-16.5529
▁epeat	-16.5529
▁erator	-16.5529
▁etter	-16.5529
▁face	-16.5529
▁getConstr	-16.5529
▁getMore	-16.5529
▁hrow	-16.5529
▁ighSurrogate	-16.5529
▁ildcardType	-16.5529
▁ily	-16.5529
▁itude	-16.5529
▁lish	-16.5529
▁mPmStrings	-16.5529
▁modify	-16.5529
▁osite	-16.5529
▁ount	-16.5529
▁rapper	-16.5529
▁river	-16.5529
▁tab	-16.5529
▁tf	-16.5529
▁trib	-16.5529
▁troyed	-16.5529
▁>	-16.6864
▁?	-16.6864
▁Constr	-16.6864
▁EmptySet	-16.6864
▁Gesture	-16.6864
▁IDs	-16.6864
▁ME	-16.6864
▁Masks	-16.6864
▁SA	-16.6864
▁Socks	-16.6864
▁Translation	-16.6864
▁Upd	-16.6864
▁Writ	-16.6864
▁ager	-16.6864
▁alend	-16.6864
▁amage	-16.6864
▁cale	-16.6864
▁egin	-16.6864
▁egrees	-16.6864
▁eto	-16.6864
▁finite	-16.6864
▁ft	-16.6864
▁getColl	-16.6864
▁getImp	-16.6864
▁help	-16.6864
▁ierarch	-16.6864
▁istr	-16.6864
▁lement	-16.6864
▁loseable	-16.6864
▁man	-16.6864
▁ness	-16.6864
▁query	-16.6864
▁serted	-16.6864
▁setMBean	-16.6864
▁tities	-16.6864
▁total	-16.6864
▁53	-16.8406
▁AndRepaint	-16.8406
▁Armed	-16.8406
▁Connector	-16.8406
▁ForValue	-16.8406
▁Fore	-16.8406
▁Gaussian	-16.8406
▁LDAP	-16.8406
▁Manag	-16.8406
▁Manip	-16.8406
▁Nfa	-16.8406
▁Oct	-16.8406
▁Peek	-16.8406
▁Radix	-16.8406
▁Reply	-16.8406
▁Stamped	-16.8406
▁Synthetic	-16.8406
▁ToBe	-16.8406
▁ToIndex	-16.8406
▁WT	-16.8406
▁WithChildren	-16.8406
▁agnitude	-16.8406
▁ane	-16.8406
▁apacity	-16.8406
▁boBox	-16.8406
▁checkSet	-16.8406
▁checkSingle	-16.8406
▁dex	-16.8406
▁edImage	-16.8406
▁ential	-16.8406
▁esture	-16.8406
▁eturnType	-16.8406
▁getApplet	-16.8406
▁getBand	-16.8406
▁getResol	-16.8406
▁gin	-16.8406
▁ian	-16.8406
▁ifiable	-16.8406
▁ignat	-16.8406
▁inality	-16.8406
▁inu	-16.8406
▁ires	-16.8406
▁isField	-16.8406
▁isMeta	-16.8406
▁isUser	-16.8406
▁li	-16.8406
▁national	-16.8406
▁newSingle	-16.8406
▁ning	-16.8406
▁olicies	-16.8406
▁otQu	-16.8406
▁otation	-16.8406
▁oth	-16.8406
▁pped	-16.8406
▁rl	-16.8406
▁setAut	-16.8406
▁sion	-16.8406
▁synchron	-16.8406
▁tern	-16.8406
▁til	-16.8406
▁toXML	-16.8406
▁trail	-16.8406
▁ume	-16.8406
▁unexport	-16.8406
▁uxing	-16.8406
▁ymbolic	-16.8406
▁yperlinkEvent	-16.8406
▁AndGet	-17.0229
▁Cp	-17.0229
▁HitInfo	-17.0229
▁IgnoreRepaint	-17.0229
▁Ow	-17.0229
▁QualifiedName	-17.0229
▁Runs	-17.0229
▁STSavings	-17.0229
▁Subs	-17.0229
▁Tasks	-17.0229
▁Termination	-17.0229
▁When	-17.0229
▁andard	-17.0229
▁asterControl	-17.0229
▁atrix	-17.0229
▁chedul	-17.0229
▁cle	-17.0229
▁content	-17.0229
▁cro	-17.0229
▁disp	-17.0229
▁eekdays	-17.0229
▁een	-17.0229
▁epest	-17.0229
▁equired	-17.0229
▁gen	-17.0229
▁getHSB	-17.0229
▁gs	-17.0229
▁ht	-17.0229
▁iler	-17.0229
▁ingFocus	-17.0229
▁lease	-17.0229
▁mand	-17.0229
▁ml	-17.0229
▁number	-17.0229
▁oint	-17.0229
▁ollow	-17.0229
▁osecond	-17.0229
▁osition	-17.0229
▁preCon	-17.0229
▁removeLocale	-17.0229
▁retain	-17.0229
▁ridge	-17.0229
▁rt	-17.0229
▁ry	-17.0229
▁sable	-17.0229
▁slow	-17.0229
▁tro	-17.0229
▁uperclass	-17.0229
▁ypass	-17.0229
▁BitsTo	-17.246
▁Combin	-17.246
▁Conv	-17.246
▁Coordinate	-17.246
▁Devices	-17.246
▁Endian	-17.246
▁F</t>	-17.246
▁Inverted	-17.246
▁KeepAlive	-17.246
▁LException	-17.246
▁Logging	-17.246
▁LowSurrogate	-17.246
▁NewLines	-17.246
▁Oc	-17.246
▁Pipeline	-17.246
▁RGBtoH	-17.246
▁Such	-17.246
▁Tiled	-17.246
▁TopLevelMenu	-17.246
▁Trunc	-17.246
▁TypeMap	-17.246
▁Weekdays	-17.246
▁Written	-17.246
▁[]	-17.246
▁afe	-17.246
▁arsh	-17.246
▁arshal	-17.246
▁atype	-17.246
▁bable	-17.246
▁chor	-17.246
▁createSource	-17.246
▁equency	-17.246
▁esource	-17.246
▁gent	-17.246
▁getSubs	-17.246
▁gex	-17.246
▁ighter	-17.246
▁ipeline	-17.246
▁irst	-17.246
▁isSh	-17.246
▁isSu	-17.246
▁itive	-17.246
▁lider	-17.246
▁mPm	-17.246
▁nemonic	-17.246
▁plic	-17.246
▁ppend	-17.246
▁scrollBy	-17.246
▁sq	-17.246
▁stri	-17.246
▁troller	-17.246
▁xis	-17.246
▁Abs	-17.5337
▁Always	-17.5337
▁Aware	-17.5337
▁BinaryString	-17.5337
▁Compiled	-17.5337
▁Consum	-17.5337
▁FieldSize	-17.5337
▁ForTag	-17.5337
▁Forwar	-17.5337
▁GMT	-17.5337
▁InStackTrace	-17.5337
▁Inline	-17.5337
▁Mid	-17.5337
▁Near	-17.5337
▁OB	-17.5337
▁OctalString	-17.5337
▁Proce	-17.5337
▁Requ	-17.5337
▁Roll	-17.5337
▁Save	-17.5337
▁TagBase	-17.5337
▁ToBind	-17.5337
▁TreeLock	-17.5337
▁Updater	-17.5337
▁UpperCase	-17.5337
▁UserInfo	-17.5337
▁ags	-17.5337
▁ained	-17.5337
▁alendar	-17.5337
▁appr	-17.5337
▁arable	-17.5337
▁arch	-17.5337
▁aybe	-17.5337
▁cell	-17.5337
▁checkCol	-17.5337
▁chedule	-17.5337
▁copyValue	-17.5337
▁cted	-17.5337
▁ead	-17.5337
▁elation	-17.5337
▁ention	-17.5337
▁epar	-17.5337
▁erCount	-17.5337
▁ffic	-17.5337
▁findIn	-17.5337
▁flater	-17.5337
▁gap	-17.5337
▁gener	-17.5337
▁getHand	-17.5337
▁gexFilter	-17.5337
▁ialog	-17.5337
▁iconify	-17.5337
▁inding	-17.5337
▁isAlpha	-17.5337
▁isString	-17.5337
▁ism	-17.5337
▁kip	-17.5337
▁me	-17.5337
▁newProxy	-17.5337
▁nown	-17.5337
▁odifiers	-17.5337
▁orePoolSize	-17.5337
▁ortable	-17.5337
▁parator	-17.5337
▁pport	-17.5337
▁ranch	-17.5337
▁rees	-17.5337
▁ritical	-17.5337
▁rowse	-17.5337
▁sFromModel	-17.5337
▁scing	-17.5337
▁setRemaining	-17.5337
▁ssignable	-17.5337
▁ten	-17.5337
▁toShort	-17.5337
▁uper	-17.5337
▁urve	-17.5337
▁wsdl	-17.5337
▁ymbol	-17.5337
▁yph	-17.5337
▁)	-17.9392
▁AB	-17.9392
▁AndFeel	-17.9392
▁Bypass	-17.9392
▁Classic	-17.9392
▁Delegator	-17.9392
▁Dist	-17.9392
▁Flash	-17.9392
▁Frag	-17.9392
▁GM	-17.9392
▁Inte	-17.9392
▁JS	-17.9392
▁Lexical	-17.9392
▁Loggable	-17.9392
▁Mot	-17.9392
▁OAP	-17.9392
▁OM	-17.9392
▁OR</t>	-17.9392
▁OwnedWindows	-17.9392
▁PE	-17.9392
▁Para	-17.9392
▁Po	-17.9392
▁RY	-17.9392
▁Shaper	-17.9392
▁Skip	-17.9392
▁Tra	-17.9392
▁Wal	-17.9392
▁WithFixed	-17.9392
▁adata	-17.9392
▁adr	-17.9392
▁aints	-17.9392
▁akeup	-17.9392
▁ampling	-17.9392
▁ants	-17.9392
▁ath	-17.9392
▁bstract	-17.9392
▁ck	-17.9392
▁dded	-17.9392
▁eb	-17.9392
▁ener	-17.9392
▁enu	-17.9392
▁erate	-17.9392
▁getAnd	-17.9392
▁getAngle	-17.9392
▁getAsc	-17.9392
▁getBl	-17.9392
▁getFree	-17.9392
▁getSOAP	-17.9392
▁ibr	-17.9392
▁idden	-17.9392
▁iddle	-17.9392
▁isBorder	-17.9392
▁isDrawing	-17.9392
▁isInd	-17.9392
▁isInput	-17.9392
▁isLeap	-17.9392
▁jjStop	-17.9392
▁lassPane	-17.9392
▁lementation	-17.9392
▁leted	-17.9392
▁mbe	-17.9392
▁mem	-17.9392
▁ns	-17.9392
▁ontal	-17.9392
▁prov	-17.9392
▁rer	-17.9392
▁scaled	-17.9392
▁setDo	-17.9392
▁setTop	-17.9392
▁shal	-17.9392
▁tate	-17.9392
▁ubicCurve	-17.9392
▁ud	-17.9392
▁uff	-17.9392
▁/	-18.6323
▁></t>	-18.6323
▁Anal	-18.6323
▁CIE	-18.6323
▁Consumed	-18.6323
▁Correct	-18.6323
▁Decor	-18.6323
▁Glyphs	-18.6323
▁IfAbsent	-18.6323
▁OctetStream	-18.6323
